/**
  ******************************************************************************
  * @file    network_data_params.c
  * @author  AST Embedded Analytics Research Platform
  * @date    2025-07-17T23:05:46+0800
  * @brief   AI Tool Automatic Code Generator for Embedded NN computing
  ******************************************************************************
  * Copyright (c) 2025 STMicroelectronics.
  * All rights reserved.
  *
  * This software is licensed under terms that can be found in the LICENSE file
  * in the root directory of this software component.
  * If no LICENSE file comes with this software, it is provided AS-IS.
  ******************************************************************************
  */

#include "network_data_params.h"


/**  Activations Section  ****************************************************/
ai_handle g_network_activations_table[1 + 2] = {
  AI_HANDLE_PTR(AI_MAGIC_MARKER),
  AI_HANDLE_PTR(NULL),
  AI_HANDLE_PTR(AI_MAGIC_MARKER),
};




/**  Weights Section  ********************************************************/
AI_ALIGNED(32)
const ai_u64 s_network_weights_array_u64[46530] = {
  0xbd61f251be0e1567U, 0x3d1105063d2a0d7eU, 0x3d828969bd8b3e52U, 0x3d8aa6c7bd81272fU,
  0xbdda486c3db91d50U, 0x3dbc812a3cebbcfdU, 0xbcacdb0d3caabb4aU, 0x3cfd9b4d3df31f41U,
  0xbe0c99853c32bb21U, 0x3dce5f7fbb375aa6U, 0x3d94e35d3df84e8eU, 0xbd74d4173b8cfd87U,
  0x3a9bdf70bd0cc4ceU, 0xbded59d43de3f0fbU, 0x3db8cf723dcffeb9U, 0xbde5e29bbca18f1fU,
  0xbd2ccefbbdacc7b2U, 0xbcb53b863dadc3abU, 0xbd56d5983da4bfffU, 0x3d4450ab3dadcb30U,
  0xbdfaa1573cd05cefU, 0x3c8a2ff73de395adU, 0xbc8096243d15043eU, 0xbdd0c1ecbd0c5806U,
  0x3dda6c3cbdf26cb0U, 0x3d6143a33dbba5fbU, 0x3c072c2f3d38e3d6U, 0xbba31bf33d94b984U,
  0x3baff3e13dc4230eU, 0xbe01c2b43d8747b6U, 0xbd8f6cc9bdbb8d3aU, 0x3e020de2bd31cf75U,
  0x3d440a4c3da3398fU, 0xbc1c0313bd563fecU, 0x3e08bfc63da9026fU, 0xbe0c705dbd959156U,
  0x3da05350bdeaa031U, 0x3dfdbd733db87309U, 0xbddc63a93d84fc4cU, 0x3d1eabe33d9d38a8U,
  0xbd74858b3dc8466bU, 0x3d9ec6063d65ce0eU, 0xbdd152d8bdcc2144U, 0xbc7174b0bd8377a2U,
  0xbdef6e003d8f853aU, 0x3d9da3a9bd5d3ae4U, 0x3c9e4d863d5ceb25U, 0x3b8b8f0cbdb677d2U,
  0xbc52165ebcd6e29bU, 0x3d281fe1bde7b0dbU, 0xbc4bdd483d0b3bc8U, 0xbd814a57bd6fe892U,
  0xbcefc9bebcbe3ca5U, 0xbd9fc449bdbde2e3U, 0x3e0110a43dcf72e6U, 0x3d915ca13d5b304eU,
  0xbda5a8043cc84132U, 0x3d8997f13e0b3006U, 0xbcb117dfbc9e73c9U, 0x3c20fbacbddd1c94U,
  0x3dc64c88be13b070U, 0x3e02c69d3d1f3420U, 0xbd1cbdb43dc62b17U, 0x3ddfd35e3e02b661U,
  0xbd122fb43d7b9e26U, 0xbd84db95bc5f900fU, 0x3cd8ddd03df4e078U, 0x3d6fb6ff3d0d6309U,
  0xbcec8881be0452c0U, 0xbcedd231bc00461eU, 0x3cf27c193d828864U, 0xbcaef200bdcd5cb7U,
  0xbd91bc28bdd64b1fU, 0x3dc1d39fbb945868U, 0x3db445323dbdb703U, 0x3db8ab90be00af85U,
  0x3df6c5efbdcef0aeU, 0x3d75a711bc5a7054U, 0x3d5d2dd2bda8410eU, 0x3dcd52e8bcb751bcU,
  0x3b633525bdbf8e6aU, 0xbd11c693bcf97430U, 0xbc6cc568bc6a3b2dU, 0x3dbb9581bce513b7U,
  0xbdb8f71ebdbd445fU, 0xbd06b102bddb04b3U, 0xbd20c560bd114b43U, 0x3d210107bd1f7f89U,
  0x3d8b3bc1bc9d7e07U, 0xbe04547cbdbfe0abU, 0xbdc3a0c63dfd757dU, 0xbd91be0e3d20df25U,
  0x3dbd9731be0d4d38U, 0x3d49dc143d7356f0U, 0xbdeca6223d92b7edU, 0x3e093be2bd276d4eU,
  0x3dc328b33d19bef4U, 0x3debb4db3e048669U, 0xbd802bdcbba29e41U, 0xbdece202be03ac2fU,
  0x3d1988ce3d8a3c08U, 0x3cc2708d3cdfcb2fU, 0xbe0e290cbdf98394U, 0xbdbfe74dbe0368eaU,
  0xbd9f1ee03cd8d6d0U, 0xbdcd68c93dd4e889U, 0xbdd8a1d63e0feff1U, 0x3d1c4cd2bda722d0U,
  0xbdf10363bdb08c4fU, 0xbc9057833e0c1ddeU, 0xbc0308d33d37a6e7U, 0x3da185aa3e05564dU,
  0x3caff8f2bd44f523U, 0xbde2d744bd5fcfedU, 0xbda76503bde84b1dU, 0x3d65d6883dffd3ffU,
  0xbdd688b4bde07b40U, 0xbe06cdd03dbfcdd4U, 0xbdade73dbd8760caU, 0x3e0e0cd8bd72b767U,
  0xbbe31704be00e780U, 0xbda2c576bd884e5cU, 0xbdbd7b15bd8976c6U, 0x3dd815ed3e0c4546U,
  0x3d000d5fbdf3e825U, 0x3de2753abca998d9U, 0x3dc4e2ecbc8a2a31U, 0xbd27a5db3c9abf14U,
  0xbdbcd43dbdab4d78U, 0x3daa6ece3da83932U, 0xbd6afe6ebd327d06U, 0xbd46d371bcc9b3b6U,
  0x3d8a1f7fbdbeb414U, 0xbe0263d43dfdcbe1U, 0xbd728976bd9ac625U, 0x3c9ea300bcef3fe8U,
  0x3dc13b6fbda429e6U, 0x3d6faa19bdc44a03U, 0x3d0b7e5fbdc51692U, 0x3d2b456cbdde297fU,
  0x3d47ee153da77efbU, 0x3bb127dabbc5204bU, 0xbd49d9063c745109U, 0x3e0030173d95c8d7U,
  0x3dc9b69bbd482966U, 0xbd0432583d1a24aeU, 0xbd852f51bd8438d2U, 0xbd862b1aba933be8U,
  0x3de6823a3dbd0707U, 0xbd700074be04c812U, 0xbcc935073d97d0c8U, 0x3d6825953da4ea30U,
  0x3d808c23bd951f22U, 0xbd795337bc3652c8U, 0xbe01bcaf3cab77dbU, 0x3c983c23bdba9933U,
  0x3d2d34b1bdb7f451U, 0x3dda67183ddedd0dU, 0xbdd37c09bdf89aecU, 0x3d39e016bc3a0f3cU,
  0x3d86eec33d8bcde7U, 0x3d83e635bd1fcb22U, 0x3dab5953bdc35607U, 0xbdcc4f853bfb08e2U,
  0x3d4367debdc2617fU, 0x3c867e42bdb36296U, 0x3cd9445bbd2d526cU, 0x3d997ea83d04e5adU,
  0x3d11c1b1bd05c3b6U, 0x3dcaff153d819d29U, 0x3d8bbdffbdbde814U, 0xbd23fbeabd82cec7U,
  0xbdec2b1dbc29c3f8U, 0xbd597c213cf76643U, 0xbbec51e4bd09b0f0U, 0xbd4e7f0fbe04e33cU,
  0xbd6cb574be04a197U, 0xbddae4cdb9a8fa86U, 0xbded22efbdb95713U, 0xbdc5a4e83d6eacb9U,
  0x3d181b8d3b4bbecaU, 0x3e08dc7a3d8701e2U, 0xbd5fa8dcbd24dfd8U, 0x3d312370bdcd10f5U,
  0x3de5ab693e088b3fU, 0xbdb2579f3c310671U, 0xbd2b5fc2bc536a24U, 0x3d2b6af7bd22e932U,
  0xbdfdced43cf94b31U, 0xbdc746e8bd845ddbU, 0x3d500d25bcf1421aU, 0x3de03ce6bdc2a56eU,
  0xbc8cb6413ce04d88U, 0xbc5c81e7bc8b7adeU, 0xbdc242bf3b705364U, 0x3d83aa693cdfcf72U,
  0x3d8e502dbd50481bU, 0x3e0da6f4bdd06824U, 0xbdfbcee7bdaf78a3U, 0x3da841a0bde86efcU,
  0xbc87e6843da1dcefU, 0xbc85926e3d825e1cU, 0xbd85b6033def7bbaU, 0x3ddbf196bd3f2d22U,
  0x3dbac70ebde78d63U, 0x3de3d70bbcbf53ceU, 0x3dfee0f9bcafbdf4U, 0xbc5f874b3dabd0aaU,
  0xbcb6f3a23d35314dU, 0x3c99b8ecbda8e14eU, 0xbd5e8735bdf51620U, 0xbd4dde4bbd9d4b9bU,
  0xbaaa2319bdd2b2ecU, 0x3d9ed4a53d4c7f56U, 0xbc633ff63d0e6eb4U, 0x3d2118cabde434a3U,
  0xbd537a38bafcd481U, 0x3da49c29bde4ce0bU, 0xbd3bdc013e0ee38fU, 0xbdf9d721bcab33d9U,
  0xbde02e893dc3bb66U, 0xbdd58b4abdf60d92U, 0x3d663255bdf76a19U, 0x3d070f3ebcceb339U,
  0xbc7913ee3dc547bcU, 0x3d950c703ced8f5aU, 0x3da22fe2bda225e4U, 0xbd84deeb3d830a4dU,
  0x3e0658583da60e53U, 0x3da5a998bd88ee97U, 0xbd013fe43de14854U, 0x3e12e405bc8f77a5U,
  0x3d8898143d9ae9fbU, 0xbdf40fabbc907aceU, 0xbdda37c7bdafb83bU, 0x3e0f0a723dee0c5cU,
  0xbb01cc373d636479U, 0xbd78fd66bcea326fU, 0x3dd5ae9b3ddeb507U, 0xbe00c06ebcce683eU,
  0xbd4190c03d81367eU, 0xbdde6c793cf57b18U, 0xbca2d9bfbd9c79e9U, 0xbcec4246be0210aeU,
  0x3da8d18ebe0b82a3U, 0x3da7366d3d5dbfd8U, 0xbdd4cc07bdb29f23U, 0xbd489f12bd71b4b6U,
  0x3dc55325bd8baf74U, 0xbd73c44fbb0aa441U, 0x3de602e1be091ac6U, 0xbd89b8efbdab7f3aU,
  0x3e093dca39298972U, 0x3d4e5f90be0a602fU, 0x3dc45c503e04e2f4U, 0x3df7aeb7bd8bf483U,
  0x3cafd12b3bcc1474U, 0xbda52a5e3da3cc77U, 0x3d83f0e4bd88fd39U, 0x3d42c4533c94858cU,
  0x3dac2cf73cc1031dU, 0x3d75c0223da9d32bU, 0xbd627bf3bda9ba5eU, 0xb7958e773da94d88U,
  0xbdcbcb16bce7c9c8U, 0x3c8642bbbddfbc62U, 0xbd9e31d83d7ce36fU, 0x3de973053cd311e1U,
  0x3db127debcf891afU, 0x3cca65a03da687d2U, 0xbdc55890be0e55ebU, 0x3d54beaa3d84c811U,
  0xbd9af5ab3dec33beU, 0xbc8c98eabd9bd2deU, 0xbd85d0373d371078U, 0x3df309993de56231U,
  0x3ca1c5a7bdf22da1U, 0xbcd77d3d3e0be38aU, 0x3d660dd33dacd60eU, 0x3d06876e3db8f98bU,
  0x3e0a5c073d1c869aU, 0xbd1e0efebd90e625U, 0x3df6b155bdb972d2U, 0x3de6334ebd4c5db7U,
  0xbc2b36d2bdccba4eU, 0x3bb9e5c13c9a49fdU, 0x3d23ee47ba82ac9dU, 0x3cbc9c3abdc5fffeU,
  0x3c531cca3dbba95dU, 0xbdc7103cbdb666d6U, 0x3dfbf32e3d91773dU, 0xbafff72f3d87cfc4U,
  0xbdfe29c1bd621ce1U, 0x3bb1244abda826a4U, 0x3ddaf3e23d779a0eU, 0x3da7e09c3d8a05b4U,
  0xbbcfa40b3de12a38U, 0xbc740826be06dc3cU, 0x3d95022f3e02e481U, 0x3d9663223d6273fdU,
  0xbe0f34f0bd6b59f5U, 0xbab375903b2b3abeU, 0xbd2beca23e03ae72U, 0xbac2855abdbb71f0U,
  0x3dbc6583be06be0fU, 0x3cd43c9f3dcd899aU, 0x3cdb61c2bdbf9ee6U, 0x3d9a67eb3da6b2e9U,
  0x3de7cc05bc898826U, 0xbddc22c83dee6486U, 0xbccd8457bd8c54a3U, 0x3d9632133dbc853fU,
  0xbd03f47bbc946cc4U, 0xbb89b651bd2d8759U, 0xbc4f8ed73df40c2cU, 0x3cb9b2923d504651U,
  0xbccd40b5bc412a03U, 0x3e1402e3bcd2d9a1U, 0xbda34a0d3dce484eU, 0x3d24d3c4bd844bbfU,
  0xbafcf3b339900499U, 0xbdee153a3b84a35dU, 0xbdf9337b3d4479cdU, 0x3dc648343e045410U,
  0x3de26735bde1bc66U, 0xbd9e64e9bd02cc3eU, 0xbdd5b7ad3dbe2270U, 0xbd5ab315bdd419f9U,
  0x3bce297e3db2879eU, 0xbd684010bda44676U, 0x3cd15d17bcfa5e10U, 0x3e02f425bddeb03aU,
  0x3d24cf6c3d3c9ba7U, 0x3d3be252bcd56ba4U, 0x3ddd5d90bd9222d6U, 0x3d7b387c3ddb4f1dU,
  0xbd17fb943d94c039U, 0xbca22e673daeececU, 0x3e08001c3c430776U, 0x3db977a6be00a575U,
  0x3bf5cba13aa1cda1U, 0x3cd387633dbf513dU, 0x3c81a1ba3dca60dcU, 0x3ddba2c33dd1520cU,
  0xbdffdae8bde2f940U, 0x3d827a44bd745ee9U, 0xbc39a4873d856dadU, 0xbd18caa4bba3335cU,
  0xbdd5c3de3d99d2e3U, 0x3c4f39043dc855ecU, 0xbe0052dcbda11399U, 0xbdb130723db0a81fU,
  0x3d65cfc9bdf24855U, 0x3dd9bcadbdb8517cU, 0xbd2875693d59b105U, 0xbd898913bdbff1a3U,
  0x3e0a968bbdee01a0U, 0xbddcda23b9ee3b19U, 0x3d4e94cebd187b24U, 0xbd4f66963e01b402U,
  0x3de093503ccd8f98U, 0xbce53a8bbe073db4U, 0xbdd808fc3d4c3b28U, 0xbc5a3c25bc570996U,
  0x3dd16b4c3dbe5e9eU, 0x3de83749bd8d02ffU, 0x3dbc55073c888b4aU, 0xbdae08f43dda46a3U,
  0xbdd082393b6a032fU, 0xbd8e6f04bdf25a07U, 0x3d3f10b0bdb9653dU, 0x3da7fd13bd85ba19U,
  0xbda986ce3d817a3aU, 0x3d8cbbb6bbbf5ed5U, 0x3d9d47a93d1be97cU, 0x3dadeb55bd89e720U,
  0x3dc5ca2bbdd1a78fU, 0x3d2eb595bce63ca3U, 0xbd4633e8bdfe0f84U, 0xbd7f34cc3df4564aU,
  0xbdfab8bd3dc04d52U, 0x3d6460263d71d095U, 0x3dd805d7bcb14d12U, 0xbcfe1b803d7a5efdU,
  0xbd8c56f03d036c56U, 0x3d6874063c3463b4U, 0x3db54f97bb4ca606U, 0xbd8fe965bdfbb076U,
  0x3dcee2e3be128037U, 0xbcf6ad08bc7c9bf8U, 0x3c9f4af93c7176abU, 0xbdfc9b63bd93470aU,
  0x3dca05a23da604afU, 0xba2217d2bde219a2U, 0xbdec5dc4bb377da7U, 0x3daacc4dbdf2aa9dU,
  0xbdde00d3bd1133d1U, 0x3d2bf34abdeef17cU, 0xbd5fea483e0bc4d4U, 0xbd82053a3e053f7fU,
  0x3c6a0240bdf424f2U, 0x3c128059bdaf5dbaU, 0xbd888dbcbd456eb8U, 0x3d143e76bd924491U,
  0xbdc1ba7abca9dec1U, 0xbe072c763d9379d9U, 0xbd24c0cebcd2bc96U, 0xbdcb12763ccbc994U,
  0xbe09a43ebd4b8e4eU, 0x3df298bf3da039d0U, 0x3cdda24ebc62de0dU, 0x3bc3fde63b5da0acU,
  0xbe038fd43c771714U, 0xbb827d22bcb27dffU, 0xbd94c5363bb80d08U, 0x3c3bb3bdbd802a4eU,
  0x3baeacddbd752bc7U, 0xbe0dc6c3be10b593U, 0xbcff95fd3d8652b8U, 0x3d881b153dedebc4U,
  0x3db4fa743ba06f76U, 0xbdceba0f3df23cc0U, 0xbdbebf53bd1d0f06U, 0xbd121c01bd893adeU,
  0xbdc4e20dbde1015cU, 0xbca6be5c3cc8cb64U, 0x3bc4fe043c0aa21cU, 0xbd72c359bdc6043fU,
  0xbd8eb1953d22d900U, 0xbdd94b2dbdba7ba0U, 0xbdf458d23d538c2aU, 0xbdf5bfc33c362a2cU,
  0x3c062e58bbfdff4bU, 0x3ac232dcbca83707U, 0x3c0ad688bb456c83U, 0x3c002214bb253bddU,
  0x3b5e70c53c3688a3U, 0x3ba1ed0dba48774dU, 0xbad449893ac943e5U, 0xbb47e61f3bad144bU,
  0xbb8d4a2dbc144900U, 0xb9b6bc1bbb6a3a52U, 0x3c93c62c3c1e9cddU, 0x39d4f3e1bcbbd11eU,
  0x3c0e190fbbf65422U, 0xbb4e365c3c303606U, 0x3c6fd8b6bc5f9627U, 0x3c4706503c144044U,
  0x3dae9d5a3d309351U, 0x3f9ee5033d053dadU, 0x3e3cf62d3c9e1c7eU, 0x3e0a3f673fd747e6U,
  0x3eec29973fe97449U, 0x3e43141a3e0194a1U, 0x3fe55a193f049c6aU, 0x3eaa69df3e18900bU,
  0x3d5e34263e53d3b8U, 0x3d4053303eb13777U, 0x3d38e20a3d3624bdU, 0x3d569c373d96b256U,
  0x3d87ffb93dae5be7U, 0x3dab26493f85bd76U, 0x402212db3e31c386U, 0x3f634d3f4021cecfU,
  0xbfca64aabffc3c20U, 0xbd70c166bfeaeb5fU, 0xbe81477ac000c398U, 0xbe7e9b8fbd393665U,
  0xbe0a5483bce3bf58U, 0xbedf587dbfd378fbU, 0xbcd555c9be14981eU, 0xbe47aae6be5f25d1U,
  0xbfd3be95be5360afU, 0xbff0ea68be0cedd4U, 0xbfe53c3ac0095eeeU, 0xc0080fa2bff35540U,
  0xc0016fcbbf9e6c5eU, 0xbfca244abd95c41bU, 0xba10569ebe938998U, 0xbd3829b2bbf790eaU,
  0x3cc9f5243dc458ffU, 0x3dc458ffbb6f5b6dU, 0xbbb38491bcd8eadaU, 0xbd58eadabdb56348U,
  0x3dc9f5243db56348U, 0x3dbcde24bd7e5123U, 0x3dd34eb63ce7e091U, 0x3da48edb3da84c48U,
  0x3cac09b63ce065b6U, 0xbcd8eadabda2b024U, 0xbc7e5123bcd16fffU, 0x3d86a36dbc9d13ffU,
  0x3dcdb2913dc09b91U, 0xbd82e5ffbc86a36dU, 0xbdb384913d2c09b6U, 0xbdcdb2913cc27a48U,
  0x3dcdb2913c6f5b6dU, 0x3ce065b63d0a60dbU, 0xbbb384913a6f5b6dU, 0xbaef5b6d3c7e5123U,
  0x3d93ba6d3dd16fffU, 0x3d248edb3da66d92U, 0x3db384913d888224U, 0xbdb563483d552d6dU,
  0x3cbaff6dbdac09b6U, 0x3d0e1e483d7318daU, 0xbdc637b63d67e091U, 0x3d58eadabd1d13ffU,
  0xbd8107493da2b024U, 0x3d9b35483c6f5b6dU, 0xbdac09b63d6f5b6dU, 0xbcd8eada3a6f5b6dU,
  0xbdb741ff3cc27a48U, 0xbc427a48bb338491U, 0xbd6f5b6dbdb920b6U, 0x3d8a60dbbbd16fffU,
  0x3b9599243dade86dU, 0xbda0d16d3d6065b6U, 0x3c7e5123bd516fffU, 0xbc6f5b6dbdc458ffU,
  0x3da48edb3ded7cb6U, 0x3ca48edb3b959924U, 0xbc248edbbd8c3f92U, 0x3b9599243d2fc724U,
  0xbd9d13ff3db56348U, 0x3ca48edbbc6065b6U, 0xbd84c4b63d82e5ffU, 0xbd7318dabc06a36dU,
  0x3d6065b63db38491U, 0xbdcbd3dabdc458ffU, 0x3d20d16dbaef5b6dU, 0x3dc8166dbd6b9dffU,
  0xbd9777db3c9d13ffU, 0x3d49f524bd4637b6U, 0xbd9777db3d195692U, 0x3d8e1e48bd427a48U,
  0xbde065b6bd9b3548U, 0xbd67e0913d0a60dbU, 0x3d8ffcff3cef5b6dU, 0x3da2b024bc338491U,
  0xbca48edbbd5ca848U, 0xbdc637b63d4637b6U, 0x3d6f5b6d3c338491U, 0x3bd16fffbdaa2affU,
  0x3d516fff3db38491U, 0x3d9956923dade86dU, 0x3d7a93b63c7e5123U, 0x3dbcde24bd11dbb6U,
  0x3dd16fff3d84c4b6U, 0x3d1599243c86a36dU, 0x3d5ca848bd8e1e48U, 0xbd91dbb6bcf6d648U,
  0x3c3384913cd8eadaU, 0x3d2c09b63c427a48U, 0xbd3aff6d3dafc724U, 0xbc959924bdb920b6U,
  0xbdb1a5dbbc6065b6U, 0xbd6f5b6dbc159924U, 0x3c338491bc427a48U, 0x3dac09b63d516fffU,
  0xbdd16fffbd888224U, 0x3d9d13ff3d9b3548U, 0xbc7e51233d49f524U, 0xbd8c3f92bc9d13ffU,
  0xbdcdb2913da84c48U, 0x3dbcde24bd8e1e48U, 0x3d4637b63db56348U, 0xbd67e0913ce065b6U,
  0x3dc8166d3c7e5123U, 0x3d6f5b6dbd02e5ffU, 0x3d58eadabd82e5ffU, 0x3d76d6483d0a60dbU,
  0x3dade86d3d810749U, 0x3d552d6d3dcbd3daU, 0xbd11dbb63dc458ffU, 0xbce7e0913cac09b6U,
  0xbc06a36d3ce065b6U, 0xbd8107493c6065b6U, 0x3c1599243cef5b6dU, 0xbd2fc7243dbebcdbU,
  0xbd9d13ff3d06a36dU, 0x3db56348bdd8eadaU, 0xbd91dbb63ddac991U, 0x3db38491bd3aff6dU,
  0x3d2fc7243db920b6U, 0x3dbaff6d3d6065b6U, 0x3d91dbb63d338491U, 0xbd2fc724bd9d13ffU,
  0x3c427a48bd0a60dbU, 0x3d0a60dbbcb38491U, 0xbc06a36dbd427a48U, 0x3aef5b6d3c959924U,
  0xbd4db291bdcbd3daU, 0x3c248edbbc338491U, 0xbd2fc7243d9ef2b6U, 0xbd11dbb63c427a48U,
  0x3dc458ffbcef5b6dU, 0x3db741ffbd7e5123U, 0x3d8107493dc27a48U, 0xbd8ffcffbd5ca848U,
  0x3d0e1e48bb959924U, 0x3c248edb3d4db291U, 0xbd76d6483d0a60dbU, 0x3dbebcdbbdb741ffU,
  0x3bef5b6d3dc27a48U, 0x3c06a36dbbb38491U, 0xbd84c4b6bbb38491U, 0xbd6065b63c248edbU,
  0x3bb384913a6f5b6dU, 0x3d67e0913dafc724U, 0x3dcdb291bcd16fffU, 0x3da48edbbd6b9dffU,
  0xbd49f5243c959924U, 0xbc7e5123bd5ca848U, 0xbcd8eada3d338491U, 0xbd642323bce065b6U,
  0x3d338491bd20d16dU, 0x3d427a48bc6f5b6dU, 0xbd6065b6bd195692U, 0x3aef5b6d3db38491U,
  0x3d7a93b6bd642323U, 0xbd284c483da2b024U, 0x3c6f5b6dbdb1a5dbU, 0xbd2fc724bdb741ffU,
  0x3dd9a91fbd851d61U, 0xbd0fe869bd45df90U, 0x3d257e793d710bb0U, 0xbda018f5bd051d61U,
  0x3cd7dc9dbd4d1195U, 0xbb8fe8693c8fe869U, 0xbd62a7a53d29177bU, 0xbd57dc9dbb2cb07eU,
  0xbcc97893bd257e79U, 0x3d710bb03da9177bU, 0x3d783db5bd257e79U, 0x3d6d72ad3d8fe869U,
  0x3d91b4eabcd0aa98U, 0x3ced72adbd21e576U, 0xbdb94807bd8a82e5U, 0x3c2cb07ebc88b664U,
  0xbd377b863cd0aa98U, 0x3d81845ebbc97893U, 0x3c2cb07ebcc97893U, 0x3bacb07e3d29177bU,
  0xbd377b86bd86e9e2U, 0x3d257e793cdf0ea2U, 0xbc0fe869bdd9a91fU, 0x3d0c4f66bda3b1f7U,
  0xbd86e9e2bd9ab371U, 0xbc0fe869U, 0x3b2cb07e3d954dedU, 0xbd710bb0bcdf0ea2U,
  0x3d50aa98bdb5af04U, 0xbb8fe869bd8a82e5U, 0xbd8350e0bd7f6fbaU, 0x3cd0aa983c57dc9dU,
  0x3d33e283bdcede17U, 0x3a6640a83db21602U, 0x3d91b4ea3d45df90U, 0xbc971a6e3c81845eU,
  0x3d3049803d497893U, 0x3da74afabd86e9e2U, 0x3c9e4c73bd74a4b2U, 0x3d710bb03d50aa98U,
  0xbd98e6ef3dae7cffU, 0x3d8a82e5bdae7cffU, 0x3c81845ebd50aa98U, 0x3a6640a8bd0fe869U,
  0x3d57dc9d3d257e79U, 0x3ca57e793d1e4c73U, 0xbda74afa3d0c4f66U, 0x3d33e2833daae3fcU,
  0x3d57dc9d3d9e4c73U, 0x3dcede17bb8fe869U, 0xbde474263c9e4c73U, 0xbd5f0ea23dd4439bU,
  0xbdbce10a3d98e6efU, 0xbcfbd6b73d29177bU, 0xbce640a8bcc2468eU, 0x3c01845e3d171a6eU,
  0x3d4d11953d33e283U, 0x3d783db53d3b1488U, 0xbae640a83d50aa98U, 0x3bc978933c9e4c73U,
  0x3cfbd6b7bdcb4514U, 0x3cd0aa983d74a4b2U, 0x3da3b1f7bdbead8bU, 0x3cbb14883cbb1488U,
  0x3d5b75a0bcdf0ea2U, 0xbda3b1f73d8a82e5U, 0xbd01845e3c3b1488U, 0xbde47426bd4d1195U,
  0x3d710bb0bd304980U, 0xbd08b6643d0fe869U, 0x3d2cb07e3ce640a8U, 0xbd91b4ea3d81845eU,
  0xbd54439bbda57e79U, 0xbb8fe869bbacb07eU, 0x3d051d613d0c4f66U, 0x3b6640a83d93816bU,
  0x3d257e79bd710bb0U, 0xbb8fe8693d57dc9dU, 0xbcd0aa983d7f6fbaU, 0xbde474263d2cb07eU,
  0x3dbce10abb2cb07eU, 0xbdae7cffbd4d1195U, 0xbd62a7a5bd8a82e5U, 0xbc88b664bc6640a8U,
  0x3d8a82e5bd783db5U, 0xbd710bb0bd971a6eU, 0x3cf4a4b23da57e79U, 0x3cbb1488bd1ab371U,
  0x3d2cb07e3dd27719U, 0x3d08b6643d2cb07eU, 0x3d8a82e53db94807U, 0xbd6640a83c2cb07eU,
  0xbd0c4f66bcdf0ea2U, 0xbdc7ac113dae7cffU, 0x3c971a6e3d1ab371U, 0xbd93816b3c01845eU,
  0xbd91b4eabd01845eU, 0x3d783db53c0fe869U, 0x3c74a4b23c8fe869U, 0xbbc978933d377b86U,
  0x3dc7ac113da018f5U, 0x3d851d61bdbb1488U, 0x3d8e1be83dd6101cU, 0xbda3b1f7bdc97893U,
  0xbd257e793c6640a8U, 0xbb6640a83d42468eU, 0x3d93816b3d50aa98U, 0xbcfbd6b7bd01845eU,
  0xbb2cb07ebd851d61U, 0xbd051d61bda9177bU, 0x3d8e1be83cc97893U, 0xbd74a4b2bda3b1f7U,
  0xbd81845e3ced72adU, 0x3cf4a4b23c971a6eU, 0x3d783db53b2cb07eU, 0xbdd4439b3d9ab371U,
  0xbd783db53d81845eU, 0xbd4d1195bcd0aa98U, 0xbd3049803d9e4c73U, 0xbddd4221bd29177bU,
  0xbdb21602bd1e4c73U, 0xbd8c4f663d377b86U, 0xbb8fe8693d1e4c73U, 0xbd91b4ea3c88b664U,
  0x3cb3e2833d81845eU, 0x3d171a6ebdacb07eU, 0xbd69d9aa00000000U, 0xbd81845ebd93816bU,
  0x3d3b1488bd69d9aaU, 0xbd01845ebd81845eU, 0xbd9ab371bd1e4c73U, 0x3c6640a83d9c7ff2U,
  0x3d971a6ebd377b86U, 0xbd1ab371bda74afaU, 0x3c01845ebd42468eU, 0x3db77b863d08b664U,
  0x3d7bd6b73cfbd6b7U, 0x3c0fe8693ae640a8U, 0x3d3b1488bd08b664U, 0xbdb3e283bdbead8bU,
  0x3d86e9e2bd1ab371U, 0x3d57dc9d3c81845eU, 0xbd69d9aa3ddf0ea2U, 0x3be640a8bc01845eU,
  0xbdda7d103b653bdeU, 0x3cde11ffbdda7d10U, 0x3dd188b93c489462U, 0x3dbfa00c3dc4ff73U,
  0xbc881b8c3d94a4d2U, 0xbc653bde3d61a6efU, 0x3dd188b9bc881b8cU, 0x3d7e4e6abcd6e820U,
  0xbd4c2952bd6c65bdU, 0xbd8f456b3de37166U, 0x3d0bb07bbbe53bdeU, 0xbda857f73d44ff73U,
  0xbd1d9929bc1d9929U, 0x3cb316c63d89e604U, 0xbd9d9929ba653bdeU, 0xbd3dd5943c966f4aU,
  0x3d966f4a3d9f63a0U, 0xbd881b8c3d92da5aU, 0xbd1a04393da68d7fU, 0x3cec65bdbd535331U,
  0xbd00f1ad3ccfbe41U, 0xbd9bceb13d77248cU, 0xbd00f1ad3a653bdeU, 0x3db316c63c653bdeU,
  0xbd36abb53ccfbe41U, 0x3d84869cbd8bb07bU, 0xbdcfbe413d5e11ffU, 0x3d24c308bda857f7U,
  0x3bc894623c489462U, 0xbb2bece7bdba40a5U, 0x3dadb75ebdb316c6U, 0xbd6c65bdbdadb75eU,
  0x3d3dd5943d2bece7U, 0x3d5e11ffbda68d7fU, 0xbd081b8c3dc89462U, 0x3d94a4d2bdc16a83U,
  0x3d94a4d2bdadb75eU, 0xbca4c308bdb14c4eU, 0x3daf81d63dda7d10U, 0xbd4fbe41bd738f9cU,
  0x3d738f9c3c1d9929U, 0xbdb14c4e3babece7U, 0xbd3316c6bdbc0b1cU, 0x3d865114bc738f9cU,
  0xbda68d7fbd89e604U, 0xbda68d7f3dbc0b1cU, 0x3daf81d6bcb316c6U, 0xbb8f456bbda857f7U,
  0x3d5a7d10bdcc2952U, 0xbd910fe33d738f9cU, 0x3c653bdebd9a0439U, 0xbd36abb5bdc334fbU,
  0xbcc16a833dd188b9U, 0xbd04869cbc2bece7U, 0x3c738f9c3d7ab97bU, 0xbd535331bc1d9929U,
  0x3b8f456bbc2bece7U, 0x3c56e8203dc89462U, 0xbdbdd5943c00f1adU, 0xbd82bc25bcfab97bU,
  0x3d24c308bca4c308U, 0x3d4fbe41bc489462U, 0xbd0f456bbdb316c6U, 0xbd8f456b3c2bece7U,
  0x3d212e183d89e604U, 0x3dabece73db8762dU, 0x3d212e183cc89462U, 0x3b2bece73d9d9929U,
  0xbcabece7bb8f456bU, 0xbd1d99293d738f9cU, 0x3dbc0b1c3d6ffaadU, 0x3d5353313d212e18U,
  0x3c00f1adbdc4ff73U, 0xbccfbe413daf81d6U, 0x3c489462bb8f456bU, 0x3cabece73d5e11ffU,
  0x3db14c4ebd3dd594U, 0xbdbdd594bdbc0b1cU, 0xbc1d99293da2f890U, 0xbd9f63a03d82bc25U,
  0xbdba40a5bdbc0b1cU, 0x3d8f456bbdd8b298U, 0x3d9839c23d212e18U, 0x3c8f456b3cba40a5U,
  0x3c1d99293d3dd594U, 0xbccfbe41bd5e11ffU, 0xbd910fe3bd84869cU, 0xba653bde3dde11ffU,
  0x3d881b8c3dbfa00cU, 0xbd82bc253dc16a83U, 0x3cc894623ae53bdeU, 0xbce53bde3c653bdeU,
  0xba653bde3d9839c2U, 0xbda12e183d6ffaadU, 0xbd7e4e6a3ca4c308U, 0xbd212e18bda2f890U,
  0xbd80f1ad3da857f7U, 0xbd966f4abc489462U, 0x3dca5eda3d9a0439U, 0x3d1d99293d84869cU,
  0x3babece73dbc0b1cU, 0xbc738f9c3dadb75eU, 0x3cf38f9c3dcfbe41U, 0xbbabece7bd0f456bU,
  0x3d9bceb1bc966f4aU, 0xbdc4ff73bdc16a83U, 0xbd44ff733ca4c308U, 0x3d80f1adbc738f9cU,
  0xbbe53bde3cec65bdU, 0x3d8651143d04869cU, 0xbc8f456bbcabece7U, 0xbd61a6efbd535331U,
  0x3cc16a833cb316c6U, 0xbdb8762d3d92da5aU, 0x3d4c29523d9a0439U, 0x3d5353313c9d9929U,
  0xbcec65bdbdb8762dU, 0xbcba40a53dc4ff73U, 0x3db316c6bd24c308U, 0xbd9bceb1bc8f456bU,
  0x3b2bece73d5e11ffU, 0xbdd8b298bdbdd594U, 0xba653bdebdbdd594U, 0x3d738f9cbd80f1adU,
  0xbd94a4d2bccfbe41U, 0x3d1a0439bd081b8cU, 0x3d56e820bd5e11ffU, 0xbcc894623b8f456bU,
  0x3dbc0b1cbcde11ffU, 0x3d8bb07bbd0f456bU, 0xbdcdf3ca3c489462U, 0x3cba40a5bd84869cU,
  0xbbe53bde3dcdf3caU, 0x3d653bdebdd35331U, 0x3d5353313dba40a5U, 0xbda2f890ba653bdeU,
  0xbdd6e8203d04869cU, 0xbb8f456bbb8f456bU, 0x3bc894623c8f456bU, 0xbd7e4e6a3d166f4aU,
  0x3d9bceb1bd7ab97bU, 0x3c881b8cbd5e11ffU, 0xbd9d99293c8f456bU, 0x3a653bde3dbc0b1cU,
  0xbda2b9ee3d10a545U, 0x3d90a545bdbc0a0dU, 0xbcc34584bbad9320U, 0xbda488cc3d144301U,
  0xbdc6e33fbc58f7e8U, 0xbdb130db3c10a545U, 0xbd1b7e773c2d9320U, 0xbd85cc13bd1b7e77U,
  0xbd75e5c3bd7d2139U, 0x3d9443013dad9320U, 0xbd3130dbbdba3b30U, 0x3cca80fb3dba3b30U,
  0x3d90a545bdb4ce97U, 0xbc10a545bdd38b4fU, 0xbbca80fbbcd8f7e8U, 0x3db86c52bae76ed5U,
  0xbd386c52bc3c0a0dU, 0xbd1443013d676ed5U, 0x3d555a2d3c3c0a0dU, 0xbc90a5453d8969cfU,
  0xbc8969cfbd805f7aU, 0x3db130db3c1f1c33U, 0xbd60335fbd555a2dU, 0x3d60335f3d944301U,
  0xbdde64813d022e58U, 0x3d10a5453dad9320U, 0xbdbdd8ebbd9b7e77U, 0x3cd8f7e8bcd1bc71U,
  0xbde59ff8bd9611deU, 0xbc10a5453ce0335fU, 0x3dba3b303d29f565U, 0xbda9f565bd8b38acU,
  0x3db2ffb93d6eaa4cU, 0x3d51bc713d5c95a3U, 0x3dc34584bd17e0bcU, 0xbd99af9abd60335fU,
  0x3d9b7e77bc022e58U, 0xbcf5e5c3bd90a545U, 0x3da488cc3dba3b30U, 0x3dc6e33fbd85cc13U,
  0xbdc514623cad9320U, 0xbd9b7e77bd6b0c91U, 0xbd7d2139bbad9320U, 0x3d0969cfbae76ed5U,
  0xbd90a5453d22b9eeU, 0x3ceeaa4c3dbc0a0dU, 0x3cd1bc713d0969cfU, 0xbb676ed5bdb2ffb9U,
  0x3dc6e33fbd434584U, 0xbda488cc3daf61feU, 0x3d60335fbdabc442U, 0x3d46e33fbd944301U,
  0xbd7248073d99af9aU, 0x3ce76ed5bc90a545U, 0xbda82687bc022e58U, 0xbd8d078abc4a80fbU,
  0xbcc345843d90a545U, 0xbd0d078abca657a9U, 0x3d29f565bd927423U, 0x3d434584bb2d9320U,
  0x3d805f7abcd8f7e8U, 0xbc8969cfbc9f1c33U, 0x3d05cc13bd83fd36U, 0xbc3c0a0d3d386c52U,
  0x3da488cc3ca657a9U, 0x3d9b7e773d17e0bcU, 0x3c75e5c3bcfd2139U, 0x3dc345843b90a545U,
  0xbb90a5453d6b0c91U, 0x3b2d93203ceeaa4cU, 0xbc10a5453d3c0a0dU, 0xbd60335fbda82687U,
  0xbd3fa7c9bce0335fU, 0x3cbc0a0d3d9611deU, 0xbd1f1c33bcad9320U, 0x3d2657a93be76ed5U,
  0xbbe76ed53d4a80fbU, 0x3d85cc13bd85cc13U, 0x3c97e0bc3d0d078aU, 0x3dd7290a3d2d9320U,
  0xbde2023cbdad9320U, 0xbdb69d74bcad9320U, 0x3d6eaa4cbc97e0bcU, 0x3c2d9320bd17e0bcU,
  0x3d05cc13bd51bc71U, 0xbd0969cfbc8969cfU, 0x3cd8f7e83d927423U, 0xbd8d078a3d97e0bcU,
  0x3a676ed5bcd8f7e8U, 0xbdad93203cad9320U, 0xbdc6e33fbd46e33fU, 0xbcca80fbbd3fa7c9U,
  0x3cfd2139bd9d4d55U, 0xbce0335fba676ed5U, 0xbc3c0a0dbdc51462U, 0xbcb4ce97bcc34584U,
  0x3c3c0a0d3c1f1c33U, 0xbd85cc13bdbfa7c9U, 0xbd555a2d3d05cc13U, 0x3a676ed53d144301U,
  0xbbca80fb3cc34584U, 0xbd0d078a3d46e33fU, 0xbd724807bd79837eU, 0xbdd1bc713d1f1c33U,
  0x3da657a9bd0d078aU, 0xbdd1bc71bc58f7e8U, 0x3c822e58bbca80fbU, 0xbdd1bc713dcc4fd8U,
  0xbd9d4d553da2b9eeU, 0xbb2d9320bd75e5c3U, 0x3d97e0bcbc2d9320U, 0x3d8969cfbbad9320U,
  0x3d8d078a3d17e0bcU, 0x3da657a9bd3fa7c9U, 0x3d9f1c333c3c0a0dU, 0xbd555a2dbca657a9U,
  0xbdabc442bd4a80fbU, 0xbd944301bc822e58U, 0xbbca80fbbd97e0bcU, 0x3bad9320bce76ed5U,
  0x3d0969cfbd2d9320U, 0xbd83fd36bd2d9320U, 0xbd99af9a3b90a545U, 0xbc8969cf3bad9320U,
  0x3c1f1c333d6b0c91U, 0xbd58f7e8bd3130dbU, 0xbde0335f3b676ed5U, 0x3d3130dbbdd1bc71U,
  0x3d3fa7c9bdc51462U, 0x3d1b7e773dcfed94U, 0x3cca80fb3c10a545U, 0xbc022e58bdb69d74U,
  0xbd58f7e8bd9d4d55U, 0x3d9f1c333bad9320U, 0x3d9b7e77bd676ed5U, 0xbc90a5453d85cc13U,
  0xbdad9320bcc34584U, 0xbd1b7e77bd555a2dU, 0xbd17e0bcbc9f1c33U, 0xbd9443013db130dbU,
  0x3a676ed53d6b0c91U, 0x3db86c523d676ed5U, 0x3cc345843b2d9320U, 0xbda826873dabc442U,
  0xbd6650f33d8bf61eU, 0xbb62c5dcbd9a227bU, 0xbbc66d203cb12a94U, 0xbd69dc0bbd26894dU,
  0xbccd834f3d1f731eU, 0x3dbbcbda3d26894dU, 0xbdaa14653d969764U, 0x3d14d1d8bd9dad93U,
  0x3dd4997e3dbd9166U, 0x3d0a30923d8f8135U, 0xbcc66d20bd582495U, 0xbc9be807bc466d20U,
  0x3d9dad933d9dad93U, 0xbbc66d203d22fe36U, 0x3d831a63bd9dad93U, 0xbcbf56f13d9dad93U,
  0xbdb2f01f3d70f239U, 0xbd4d834fbd3f56f1U, 0xbd8dbba93d9146c1U, 0x3c2a1465bd1f731eU,
  0x3caa1465bd5bafadU, 0xbcaa14653d34b5abU, 0xbc70f2393cf80868U, 0x3c86a57abd14d1d8U,
  0x3db840c3bda6894dU, 0xbd9be807bd94d1d8U, 0x3c3840c3bd84dfefU, 0x3dcbbdc33d6650f3U,
  0xbc70f239bdd9ea21U, 0x3d5bafadbcff1e97U, 0xbd7f1e973cb12a94U, 0xbd14d1d8bce2c5dcU,
  0xbd22fe36bd6650f3U, 0x3b62c5dcbdc4a795U, 0xbbc66d20bc54997eU, 0xbd9be807bdbd9166U,
  0x3bc66d20bd6d6722U, 0xbd9be8073da4c3c2U, 0xbdb12a943dd2d3f2U, 0x3daa1465bd69dc0bU,
  0xbd22fe363d1be807U, 0x3d466d20bc54997eU, 0xbd9146c13dad9f7cU, 0xbc54997ebd969764U,
  0xbd22fe36bce2c5dcU, 0x3ccd834f3ddd7539U, 0x3d8f8135bd8154d7U, 0xbc8dbba9bd985cf0U,
  0x3d9146c1bd8154d7U, 0xbdc11c7d3d42e209U, 0x3d8f8135bdd82495U, 0x3d94d1d83d886b06U,
  0xbd6650f3bc70f239U, 0xbd886b063d7f1e97U, 0x3d4d834fbc1be807U, 0xbd84dfefbbff1e97U,
  0xbd3840c33cdbafadU, 0x3db840c3bce9dc0bU, 0xbda84ed9bd8bf61eU, 0xbd510e673cb840c3U,
  0x3d185cf03d831a63U, 0xbd8bf61ebd9a227bU, 0xbd86a57a3a62c5dcU, 0xbd0dbba93ca2fe36U,
  0x3bff1e97bdc2e209U, 0x3dabd9f03d8a3092U, 0xbd185cf03d985cf0U, 0x3c86a57abd34b5abU,
  0xbd94d1d83c3840c3U, 0xbb62c5dcbcff1e97U, 0x3d69dc0bbd9be807U, 0xbcf80868bd0dbba9U,
  0x3d3bcbda3c2a1465U, 0xbcc66d20bd0a3092U, 0xbdabd9f0bae2c5dcU, 0xbdd10e67bcb840c3U,
  0xbd8154d73d9146c1U, 0x3d7808683cf80868U, 0x3d1f731e3d1f731eU, 0xbc3840c3bc94d1d8U,
  0xbd9146c1bd582495U, 0xbdaa1465bdcd834fU, 0x3d0dbba93c466d20U, 0xbbe2c5dc3d0a3092U,
  0xbdc4a795U, 0xbbe2c5dcbca2fe36U, 0x3c466d203da138aaU, 0xbd466d203ca2fe36U,
  0x3d8f8135bbff1e97U, 0xbd510e673da6894dU, 0x3d94d1d8bd0dbba9U, 0xbdbd9166bdbf56f1U,
  0x3c7f1e97bda2fe36U, 0x3baa14653c9be807U, 0xbd49f838bc54997eU, 0xbcf808683dcbbdc3U,
  0x3b2a1465bd780868U, 0xbd22fe363d8bf61eU, 0xbc8dbba93dd2d3f2U, 0x3c0dbba93c86a57aU,
  0xbd2a1465bda4c3c2U, 0x3d8bf61e3cd4997eU, 0xbbc66d20bc3840c3U, 0xbd9be807bd0a3092U,
  0xbd3f56f13dbbcbdaU, 0x3b2a14653c0dbba9U, 0x3d8dbba9bd7b9380U, 0x3da6894dbc9be807U,
  0x3d94d1d83d969764U, 0x3d7808683b62c5dcU, 0xbd0a3092bd1f731eU, 0xbce9dc0bbb2a1465U,
  0x3d1f731ebcd4997eU, 0x3a62c5dcbca2fe36U, 0xbd9be8073cb12a94U, 0xbd0a30923d031a63U,
  0xbb8dbba93daa1465U, 0xbdba064e3dc832acU, 0x3c3840c33caa1465U, 0xbde10050bda6894dU,
  0xbdb67b373d5f3ac4U, 0x3d9dad933c8dbba9U, 0xbc54997ebdb67b37U, 0xbdcf48db3d9a227bU,
  0x3d466d203dc66d20U, 0xbda84ed9bda6894dU, 0x3d3bcbdabc86a57aU, 0x3dd9ea21bd2a1465U,
  0x3d510e673cf80868U, 0x3db67b373daa1465U, 0x3c3840c3bcaa1465U, 0x3ae2c5dc3d9dad93U,
  0xbd9146c1bd9a227bU, 0xbd3bcbda3d8154d7U, 0x3ce2c5dcbd86a57aU, 0xbd9f731ebd9146c1U,
  0x3b8dbba93d3f56f1U, 0x3d5bafad3d9be807U, 0xbd26894dbdd4997eU, 0x3d49f838bca2fe36U,
  0x3d5f3ac43d26894dU, 0xbb8dbba9bdcf48dbU, 0x3d26894dbdb4b5abU, 0xbbc66d203d8bf61eU,
  0x3d9e771dbd258218U, 0x3d56cef9bd808870U, 0xbd3aa30b3d106126U, 0xbd4fc3febcb01292U,
  0xbb8cdba83d106126U, 0xbcb012923d615f73U, 0xbd64e4f1bdaaca55U, 0x3d13e6a33c1af19fU,
  0x3da3bf593c7d8b61U, 0xbd992ee03bfd8b61U, 0x3cbe2889bb8cdba8U, 0x3c7d8b61bda744d7U,
  0x3d9cb45ebd258218U, 0x3da90796bc371d8dU, 0xbd824b2e3c371d8dU, 0xbd686a6ebd7a05e3U,
  0x3b615f73bd85d0acU, 0xbdbaa30b3d106126U, 0xbc0cdba83daaca55U, 0xbdac8d14bd8e9e67U,
  0x3ba90796bc1af19fU, 0xbd840dedbdc370c6U, 0xbd0cdba8bc85d0acU, 0xbda907963d5a5477U,
  0xbdb398103c0cdba8U, 0x3dbfeb483dbfeb48U, 0xbdc1ae073dca7bc1U, 0xbd93e6a33c53497cU,
  0x3d1af19f3db55aceU, 0xbd8088703ba90796U, 0x3d09562abd371d8dU, 0xbca1fc9b3dc6f643U,
  0x3dd3497c3d339810U, 0xbd453385bd4c3e80U, 0xbddf9cb43ddf9cb4U, 0xbd339810bdbc65caU,
  0x3c0cdba8bcb71d8dU, 0xbdbe2889bd686a6eU, 0x3dc6f643bd21fc9bU, 0xbdb01292bda1fc9bU,
  0xbda58218bd615f73U, 0xbda1fc9bbd840dedU, 0xbd3398103cda5477U, 0xbca1fc9b3dbaa30bU,
  0xbda039dc3d992ee0U, 0x3c7d8b61bc93e6a3U, 0xbcb012923d453385U, 0x3d4c3e803dae4fd3U,
  0x3ca907963d808870U, 0x3d05d0acU, 0xbd9223e4bd48b902U, 0x3ba90796bd9cb45eU,
  0x3bc53385bd95a962U, 0xbd371d8d3dd186bdU, 0xbd992ee0bd48b902U, 0xbae15f733ca1fc9bU,
  0x3cf680663d371d8dU, 0xbdc6f6433b290796U, 0xbd9223e4bd7d8b61U, 0x3cd3497c3d453385U,
  0x3ba907963dbc65caU, 0x3d176c213c453385U, 0x3d106126bdbc65caU, 0x3d6befecbda039dcU,
  0x3cef756abda744d7U, 0xbd85d0ac3dce013fU, 0x3da3bf593dc8b902U, 0xbc6f756abdcfc3feU,
  0xbbc53385bdcc3e80U, 0xbdbaa30bbbc53385U, 0x3dc1ae073ae15f73U, 0xbc615f733cda5477U,
  0x3d024b2e3d3e2889U, 0x3cfd8b61bcb71d8dU, 0x3b2907963daaca55U, 0xba615f733d9223e4U,
  0xbd0cdba83d371d8dU, 0x3da1fc9bbd9cb45eU, 0x3d9061263b8cdba8U, 0x3b2907963cbe2889U,
  0x3da039dcbd4c3e80U, 0xbda744d73d4fc3feU, 0xbccc3e80bdbe2889U, 0x3dc8b9023d1e771dU,
  0xbb615f733ca90796U, 0x3d3e28893db01292U, 0x3d8e9e67bc6f756aU, 0xbd8088703d768066U,
  0xbd453385bda039dcU, 0xbce15f733d371d8dU, 0xbc93e6a3bdc53385U, 0x3d906126bd9223e4U,
  0x3dc6f6433dbaa30bU, 0xbda58218bd339810U, 0xbd1af19f3d8cdba8U, 0xbd1061263da744d7U,
  0xbb8cdba83da1fc9bU, 0xbd4fc3fe3dcc3e80U, 0x3d976c21bbc53385U, 0x3dae4fd3bba90796U,
  0x3c6f756a3dcfc3feU, 0x3d615f733d5dd9f5U, 0xbd824b2e3d6befecU, 0x3dc1ae073d8cdba8U,
  0xbdae4fd3bd21fc9bU, 0xbd024b2e3ce15f73U, 0x3dca7bc1bd89562aU, 0xbdb71d8d3dac8d14U,
  0x3d9e771dbb290796U, 0x3d9af19f3bc53385U, 0x3c53497cbc290796U, 0xbd41ae073da3bf59U,
  0x3d4533853ba90796U, 0x3d2c8d14bd8b18e9U, 0x3d9cb45e3d290796U, 0x3d1e771dbd024b2eU,
  0xbc93e6a3bd5dd9f5U, 0x3ce86a6e3cc53385U, 0xbdaaca553da3bf59U, 0x3d976c213dc53385U,
  0x3cb01292bdc6f643U, 0x3dbfeb48bcfd8b61U, 0x3db8e04c3d05d0acU, 0xbda039dcbd0cdba8U,
  0xbc371d8dbc1af19fU, 0x3be15f73bba90796U, 0x3dddd9f53d85d0acU, 0x3dbe2889bdca7bc1U,
  0x3d992ee0bd95a962U, 0x3d992ee0bcc53385U, 0x3ce15f73bd9af19fU, 0x3d53497cbd3e2889U,
  0x3d7a05e33c371d8dU, 0xbd9e771dbcc53385U, 0xbd768066bd339810U, 0xbd9223e4bd808870U,
  0x3d85d0ac3ca1fc9bU, 0xbd1af19f3d87936bU, 0xbda039dc3d9223e4U, 0xbd9af19fbda744d7U,
  0xbd106126bdbc65caU, 0xbd4fc3febd768066U, 0x3be15f733d21fc9bU, 0xbd992ee0bc6f756aU,
  0x3d2ce8743c9a8378U, 0xbc309640bdca56d4U, 0x3d34440cbd258cdcU, 0xbca1df103d2ce874U,
  0x3b6b7300bda93aa8U, 0x3d94fec6bdbf4d70U, 0xbbce04a03d1e3144U, 0x3c3096403d1e3144U,
  0xbd7a2a30bd21df10U, 0xbd641768bdb9c8beU, 0x3d767c643db26d26U, 0xba6b7300bdace874U,
  0x3d309640bd51b26cU, 0xbb9327e0bdab118eU, 0x3d8470b03da1df10U, 0xbd60699c3da93aa8U,
  0xbd1327e03da93aa8U, 0xbc9a83783d8da32eU, 0x3cd56038bbeb7300U, 0x3db7f1d83d9e3144U,
  0x3cb09640bdca56d4U, 0x3cf2ce98bd96d5acU, 0xbd96d5acbcdcbbd0U, 0x3bce04a0bd309640U,
  0xbc21df10bbce04a0U, 0x3db61af2bdc12456U, 0xbd60699cbd98ac92U, 0x3d72ce98bdbf4d70U,
  0xbd9150fa3d6f20ccU, 0x3d4a56d43d9150faU, 0xbcb7f1d83dbb9fa4U, 0x3cfa2a30bd864796U,
  0x3dab118ebda58cdcU, 0x3d1e3144bd9a8378U, 0x3dc6a908bdd1b26cU, 0x3d9a8378bb6b7300U,
  0x3ceb73003c3f4d70U, 0x3d94fec6bd9c5a5eU, 0x3a6b73003d42fb3cU, 0xbd8470b03d590e04U,
  0x3d881e7c3de99c1aU, 0xbd89f562bd46a908U, 0xbd6b7300bc309640U, 0xbdb61af23dc4d222U,
  0x3d6417683cbf4d70U, 0x3c8bcc483da763c2U, 0x3d16d5ac3c6b7300U, 0x3d5cbbd0bc5cbbd0U,
  0xbd60699c3c0470b0U, 0x3d34440c3d37f1d8U, 0xbd00c2e4bd94fec6U, 0x3db09640bd864796U,
  0x3d8da32ebd864796U, 0x3d0bcc483c4e04a0U, 0xbdc6a9083dbb9fa4U, 0xbd767c64bdc2fb3cU,
  0x3cb09640bd94fec6U, 0x3d767c643c1327e0U, 0xbde5ee4e3d6b7300U, 0x3c5cbbd0bcc6a908U,
  0xbc0470b03cce04a0U, 0x3d081e7c3d9a8378U, 0xbdc124563c4e04a0U, 0x3cd560383dd38952U,
  0x3cbf4d703cf2ce98U, 0x3dcfdb863d293aa8U, 0x3da0082abdbb9fa4U, 0x3d6f20ccbc5cbbd0U,
  0xbda3b5f6bdb26d26U, 0xbd7a2a303d6f20ccU, 0x3cf2ce98bc7a2a30U, 0x3c3096403d16d5acU,
  0xbcce04a0bca1df10U, 0x3d6b73003d590e04U, 0x3ca1df10bdd90e04U, 0xbdbb9fa4bd9c5a5eU,
  0x3c8bcc48bdd56038U, 0xbd34440c3d9327e0U, 0xbd37f1d83d34440cU, 0xbd081e7cbd98ac92U,
  0x3ce417683d9a8378U, 0x3d881e7cbc8bcc48U, 0xbd80c2e43c9327e0U, 0x3dcfdb863ca1df10U,
  0xbb6b7300bc9a8378U, 0x3d9327e0bdd56038U, 0xbdca56d43da58cdcU, 0x3cce04a03daebf5aU,
  0xbcce04a03cd56038U, 0xbdb096403ddae4eaU, 0xbd0bcc48bdb26d26U, 0xbd98ac923c9a8378U,
  0xbde5ee4ebcd56038U, 0xbd0f7a143d1a8378U, 0xbdb4440cbd5cbbd0U, 0xbd8470b03ca1df10U,
  0x3aeb73003aeb7300U, 0xbda58cdcbda1df10U, 0x3d46a908bd67c534U, 0xbdcc2dba3d8299caU,
  0xbd6b73003d72ce98U, 0x3d2ce8743d6f20ccU, 0x3d3b9fa4bd293aa8U, 0x3cdcbbd0bdc4d222U,
  0xbd96d5ac3db7f1d8U, 0x3d37f1d83d34440cU, 0xbd9a83783cce04a0U, 0x3dca56d4bd6f20ccU,
  0x3d1a8378bd94fec6U, 0x3d9a8378bd1a8378U, 0x3d590e04bd590e04U, 0xbc9327e0bdcfdb86U,
  0xbc4e04a0bd7a2a30U, 0xbd98ac923db09640U, 0x3dace8743d96d5acU, 0x3aeb7300bb309640U,
  0xbd8470b03cfa2a30U, 0x3db61af23d94fec6U, 0xbde7c534bd96d5acU, 0x3cd5603800000000U,
  0xbd4e04a0bd9150faU, 0x3ceb73003d9a8378U, 0xbdc2fb3cbcb09640U, 0x3d8470b0bdbb9fa4U,
  0x3d3f4d703d4e04a0U, 0x3d8bcc48bd3f4d70U, 0x3db4440cbc8bcc48U, 0x3dc124563d864796U,
  0xbce417683d34440cU, 0xbd8299cabd4e04a0U, 0x3d60699cbd94fec6U, 0xbda93aa83d3f4d70U,
  0xbda763c23c7a2a30U, 0xbcce04a03d42fb3cU, 0x3d00c2e43cb7f1d8U, 0xbcc6a908bc4e04a0U,
  0xbd37f1d83cb7f1d8U, 0x3d8da32e3ddae4eaU, 0x3d309640bd4a56d4U, 0x3dbb9fa4bd0bcc48U,
  0x3ceb7300bd9150faU, 0x3d9150fa3b9327e0U, 0xbcdcbbd0bd1327e0U, 0xbd7a2a303d8bcc48U,
  0xbd9ebe69bd849906U, 0x3d2814e73d9ce04fU, 0xbd885539bd7dfd74U, 0xbc8def853d6f0caaU,
  0x3cabd11a3c86771fU, 0x3cef0caa3ca458b5U, 0x3da27a9bbd9b0236U, 0x3d33497f3dd4e747U,
  0x3c423a4abd6b5077U, 0x3c8def85bd6b5077U, 0x3d849906bd86771fU, 0xbd9b0236bc06771fU,
  0x3c2458b53d0def85U, 0x3d6f0caa3a6f0caaU, 0x3d2458b53d58a37aU, 0x3d209c823d0def85U,
  0x3dabd11a3ce01bdfU, 0x3d06771fbce01bdfU, 0xbdb3497fbdaf8d4dU, 0x3d82baedbb33497fU,
  0x3d2f8d4d3d209c82U, 0xbd54e7473b9567eaU, 0xbd9b02363d0def85U, 0xbcd12b143cbac1e5U,
  0x3d9389d1bc601bdfU, 0x3a6f0caa3d4d6ee2U, 0x3cd12b143d423a4aU, 0xbc9ce04f3d82baedU,
  0xbcfdfd74bd1ce04fU, 0xbc33497fbd9389d1U, 0x3d7dfd743db52799U, 0x3d8def85bd974603U,
  0x3d3ac1e5bdbc9ffeU, 0x3ca458b5bd4d6ee2U, 0xbc9ce04fbd19241dU, 0xbd49b2afbc8def85U,
  0xbd58a37a3cd8a37aU, 0xbda27a9bbd7dfd74U, 0x3ce01bdf3ded2e90U, 0xbc7dfd74bdda8193U,
  0x3db16b66bdc41863U, 0x3d885539bb6f0caaU, 0x3d8855393dbac1e5U, 0x3db527993ce79444U,
  0xbd3ac1e53d45f67dU, 0x3c2458b53d45f67dU, 0x3d8def85bd8fcd9eU, 0xbc8def853d2f8d4dU,
  0xbdd6c5603d2458b5U, 0xbc6f0caabca458b5U, 0xbd1ce04fbc512b14U, 0xbc7dfd74bdbc9ffeU,
  0x3d4d6ee23da09c82U, 0x3d82baed3da814e7U, 0x3c1567eabcef0caaU, 0x3d72c8dcbda09c82U,
  0xbda27a9bbd1567eaU, 0x3d0def853b9567eaU, 0xbd72c8dcbd8a3352U, 0x3d86771fbd849906U,
  0x3d423a4abcf6850fU, 0xbce01bdfbc33497fU, 0xbddc5fac3d7a4142U, 0xbd19241dbcbac1e5U,
  0xbb9567ea3d72c8dcU, 0xbd9b02363dadaf33U, 0x3d2bd11abbd12b14U, 0x3d209c823c9567eaU,
  0xbd49b2af3a6f0caaU, 0x3bef0caabcabd11aU, 0xbcd12b143d8c116bU, 0x3d0a33523c9ce04fU,
  0x3cd12b143dcf4cfbU, 0xbd19241dbd91abb7U, 0x3d9ce04f00000000U, 0xbd80dcd3bd7dfd74U,
  0x3d3e7e173c33497fU, 0x3d849906bdbac1e5U, 0xbcfdfd74bd63d812U, 0x3cef0caa3dda8193U,
  0xbc423a4abbb3497fU, 0xbd1ce04fbd974603U, 0x3dc23a4abdc5f67dU, 0x3db3497fbdc7d496U,
  0x3b9567eabd0def85U, 0xbd86771fbc423a4aU, 0x3d849906bcbac1e5U, 0x3dbc9ffebb33497fU,
  0x3d19241d3c06771fU, 0xbd0def853cd8a37aU, 0x3c86771fbd82baedU, 0xbcfdfd743d9b0236U,
  0x3dcd6ee23d45f67dU, 0xbcd8a37a3db705b2U, 0x3cfdfd743c9567eaU, 0xbd91abb73ca458b5U,
  0x3d601bdfbd8a3352U, 0x3db8e3cb3d5c5facU, 0x3dd12b143c6f0caaU, 0x3cb3497fbc6f0caaU,
  0xbd9567ea3d76850fU, 0x3c423a4abc33497fU, 0x3dcd6ee2bd3e7e17U, 0xbdbe7e17bda27a9bU,
  0xbd1ce04f3da09c82U, 0x3d54e7473da458b5U, 0xbbd12b14bc601bdfU, 0xbd679444bd58a37aU,
  0x3c8def85bdb16b66U, 0x3bb3497f3db16b66U, 0xbbd12b143d7dfd74U, 0xbd3ac1e53bef0caaU,
  0xbd8fcd9e3c423a4aU, 0x3da636cebd3ac1e5U, 0x3d209c823c06771fU, 0xbd58a37a3cb3497fU,
  0xbca458b53d3e7e17U, 0xbd3705b23cf6850fU, 0x3c2458b5bc512b14U, 0x3d99241dbd9ce04fU,
  0x3d80dcd3bd679444U, 0xbd8a3352bd7dfd74U, 0x3b9567ea3d8c116bU, 0x3b9567eabdadaf33U,
  0xbc423a4a3cb3497fU, 0x3d679444bda814e7U, 0x3bef0caabd679444U, 0x3d1ce04fbd33497fU,
  0xbd33497f3ce79444U, 0xbdbc9ffe3d2814e7U, 0x3d02baedbd49b2afU, 0x3dbc9ffe3d33497fU,
  0x3d76850fbdbc9ffeU, 0x3dcd6ee23d2458b5U, 0xbd2458b5bd8fcd9eU, 0x3da814e73cbac1e5U,
  0xbaef0caa3c86771fU, 0x3dc7d4963d91abb7U, 0xbcef0caa3ce79444U, 0x3d80dcd3bdb8e3cbU,
  0xbd423a4a3b9567eaU, 0x3dd8a37abd86771fU, 0x3b9567eabd974603U, 0x3d1ce04fbd76850fU,
  0xbb9efb943daee189U, 0xbdb2db06bb7e5f53U, 0xbdcead733d4ead73U, 0xbd8f159ebdc4bdbaU,
  0x3d9cfed5bdd4a3afU, 0xbc5e9368bd8722a4U, 0x3bde93683d832927U, 0xbd1b0216bc2ee189U,
  0xbd3ec77e3c3ec77eU, 0x3d6a7fe0U, 0x3d0722a4bb9efb94U, 0x3dc4bdbaU,
  0x3d9efb943d668663U, 0xbbde9368bd36d483U, 0xbcde9368bdbace01U, 0x3d1708993d0f159eU,
  0xbdb8d1423d766c58U, 0xbdb2db063c7e5f53U, 0xbd170899bd0b1c21U, 0xbd5a99eb3b7e5f53U,
  0xbd7272dbbd4ead73U, 0x3db6d483bdbccabfU, 0xbdb4d7c5U, 0x3d766c58bdcab3f6U,
  0xbd46ba78bd9cfed5U, 0x3d9b0216bd36d483U, 0x3d950bda3d5e9368U, 0x3cf66c583d5a99ebU,
  0x3d812c68bd0722a4U, 0xbce686633cf66c58U, 0x3d891f62bd56a06eU, 0xbcbec77ebd1b0216U,
  0x3dc4bdba3d990558U, 0x3da0f852bdaee189U, 0xbd9cfed5bd832927U, 0x3d91125dbd766c58U,
  0x3c6e795dbdd89d2cU, 0xbcbec77e3da6ee8eU, 0x3d7272dbbdfc6294U, 0x3cc6ba783d32db06U,
  0xbafe5f53bd2ee189U, 0xbd1efb943bde9368U, 0xbd8525e5bcf66c58U, 0xbc8722a43d5a99ebU,
  0x3d26ee8ebda4f1d0U, 0xbd9efb943d91125dU, 0xbcee795d3d970899U, 0xbd8722a43c5e9368U,
  0x3db6d4833c3ec77eU, 0x3afe5f533b7e5f53U, 0xbdaae80b3db4d7c5U, 0xbd8b1c213dd6a06eU,
  0xbdb0de47bd2ae80bU, 0xbd56a06ebc4ead73U, 0xbd1efb943d2ee189U, 0xbc5e9368bda4f1d0U,
  0xbddc96aa3c5e9368U, 0x3dbccabfbd8b1c21U, 0x3d6a7fe03da6ee8eU, 0xbd4ead73bd0722a4U,
  0x3c8f159ebd22f511U, 0x3ce686633bfe5f53U, 0x3c6e795dbd628ce6U, 0x3da4f1d03da8eb4dU,
  0xbd9efb94bc5e9368U, 0x3c3ec77e3d6e795dU, 0xbc7e5f533d52a6f0U, 0xbc8f159ebdb0de47U,
  0x3dc8b737bb7e5f53U, 0x3cee795d3ca6ee8eU, 0x3c7e5f533d36d483U, 0x3c0f159ebbbec77eU,
  0x3c2ee1893dd2a6f0U, 0xbdd0aa32bdc2c0fbU, 0x3d5e93683d766c58U, 0xbd22f5113b9efb94U,
  0xbd8b1c21bdd4a3afU, 0x3da4f1d03d2ee189U, 0xbc7e5f533d130f1cU, 0xbcd6a06e3db0de47U,
  0x3b7e5f53bcb6d483U, 0xbc4ead733c3ec77eU, 0x3d9905583db2db06U, 0x3ce68663bd5e9368U,
  0xbcc6ba78bd8722a4U, 0x3d628ce63c6e795dU, 0x3c3ec77ebdc4bdbaU, 0x3dc0c43d3dcead73U,
  0xbdc6ba783db0de47U, 0xba7e5f53bc4ead73U, 0xbd9efb94bcfe5f53U, 0xbd9efb94bcd6a06eU,
  0x3ca6ee8e3de88321U, 0x3d8525e5bda2f511U, 0xbda0f8523d8722a4U, 0x3db6d483bd9b0216U,
  0x3daae80bbcee795dU, 0xbca6ee8ebd52a6f0U, 0xbd9b02163d170899U, 0xbcaee1893da0f852U,
  0xbd2ae80bbd766c58U, 0xbdc4bdbabd0722a4U, 0x3d91125dbddc96aaU, 0xbd130f1cbdb4d7c5U,
  0xbd91125dbdc2c0fbU, 0xbd0722a4bd8b1c21U, 0xbca6ee8e3b7e5f53U, 0xbdb6d4833d9cfed5U,
  0xbddc96aabd36d483U, 0xbafe5f533da4f1d0U, 0xbdda99ebbd6a7fe0U, 0x3d7a65d53d2ae80bU,
  0x3d8d18e03d4ead73U, 0x3d9efb943de09027U, 0xbdd89d2cbcd6a06eU, 0xbd56a06ebd26ee8eU,
  0x3c2ee1893d52a6f0U, 0xbc8f159e3db0de47U, 0x3d8f159ebdee795dU, 0xbd668663bd26ee8eU,
  0x3ca6ee8e3c970899U, 0x3d3ace013d766c58U, 0x3c8722a4bdc4bdbaU, 0xbc8f159e3d7a65d5U,
  0xbde28ce63dc0c43dU, 0xbcde9368bd950bdaU, 0x3cee795dbd56a06eU, 0xbd8f159e3d22f511U,
  0x3c0f159e3dbccabfU, 0xbcd6a06e3d170899U, 0x3d4ead733d22f511U, 0x3d91125d3ccead73U,
  0xbddc96aabdcead73U, 0x3dc4bdbabda2f511U, 0xbd766c583d26ee8eU, 0xbd1b0216bd7a65d5U,
  0xbcc6ba78bbbec77eU, 0x3db6d483bd36d483U, 0x3cb6d4833daae80bU, 0xbdb2db06bd56a06eU,
  0x3d950bdabda6ee8eU, 0x3d1efb94bdc2c0fbU, 0xbdb2db06bd891f62U, 0x3caee189bd6e795dU,
  0xbda5c5b33d66a3c1U, 0xbc88f13b3d1af606U, 0xbdb5fd373dcf3720U, 0xbce6a3c13d583985U,
  0xbd81bc1d3db7ca7eU, 0x3be6a3c1bc81bc1dU, 0x3dc0cce43cd83985U, 0xbc3b650d3da05ddcU,
  0x3c1026593d8c8bcaU, 0xbdb7ca7e3d8e5911U, 0xbb66a3c13d429a2bU, 0x3dbeff9c3c49cf49U,
  0x3ae6a3c1bdbd3255U, 0x3d9af606bdda06cdU, 0xbda960423d6a3e50U, 0xbc3b650dbd5f6ea3U,
  0x3d66a3c1bd01bc1dU, 0x3d342fefbd222b24U, 0xbd91f3a03cbb650dU, 0x3da3f86b3c01bc1dU,
  0x3a66a3c1bd8e5911U, 0x3da22b243dcd69d8U, 0xbdbb650dbda96042U, 0x3d13c0e83d2cfad1U,
  0x3cdf6ea33c583985U, 0xbd9e90953d5bd414U, 0xbcc9cf49bd750dfdU, 0xbc975b773cc9cf49U,
  0x3d3eff9c3dacfad1U, 0x3d0c8bca3d510467U, 0x3da3f86b3d71736eU, 0x3d175b77bd6a3e50U,
  0xbbacfad13ca5c5b3U, 0xbc66a3c13cacfad1U, 0xbdbb650dbd296042U, 0xba66a3c1bd3eff9cU,
  0xbdd49ef6bd750dfdU, 0x3da22b243c9e9095U, 0x3d583985bd7fddaaU, 0x3c975b77bc975b77U,
  0x3dd49ef63dacfad1U, 0x3d1026593d49cf49U, 0xbdc802023d5f6ea3U, 0xbd7c431b3d49cf49U,
  0xbd9026593d902659U, 0xbdaec8193cb42fefU, 0xbd958e2f3d5f6ea3U, 0xbd37ca7e3d429a2bU,
  0xbd91f3a0bd296042U, 0xbd9af606bdb997c6U, 0xbcb42fefbcbb650dU, 0x3be6a3c13d7fddaaU,
  0x3d8556ac3d429a2bU, 0xbc1e90953d3b650dU, 0xbd3b650dbd4d69d8U, 0x3cb42fef00000000U,
  0x3dbb650d3cd83985U, 0x3d838964bc81bc1dU, 0x3dd49ef63d5f6ea3U, 0x3dbb650d3db262a8U,
  0x3d6a3e503c1e9095U, 0x3ce6a3c1bae6a3c1U, 0xbdbeff9c3cfc431bU, 0x3db262a83d0c8bcaU,
  0x3cbb650dbc102659U, 0xbd750dfd3c88f13bU, 0xbc88f13b3ca5c5b3U, 0x3d4d69d83d88f13bU,
  0x3da3f86bbda792faU, 0xbd296042bd102659U, 0xbcacfad1bdab2d89U, 0x3c81bc1dbd6dd8dfU,
  0xbd975b77bd91f3a0U, 0x3d37ca7e3dab2d89U, 0xbd81bc1d3cf50dfdU, 0x3dc29a2bbcd83985U,
  0xbd9af606bd1af606U, 0x3d3eff9cbcedd8dfU, 0xbd630932bcacfad1U, 0xbda22b24bc3b650dU,
  0xbb66a3c13cf50dfdU, 0x3dc634ba3dbb650dU, 0x3da792fa3d296042U, 0xbd222b243c902659U,
  0x3da22b243ce6a3c1U, 0xbc1e90953cdf6ea3U, 0x3dcf3720bc66a3c1U, 0x3d4d69d83d7fddaaU,
  0xbc1026593dc80202U, 0x3c01bc1d3da22b24U, 0x3da792fa3dd83985U, 0xbd08f13bbd13c0e8U,
  0x3d0c8bca3dd2d1afU, 0xbcedd8dfbd88f13bU, 0x3be6a3c1bcd83985U, 0x3d8556acbd78a88cU,
  0xbd8c8bcabdc0cce4U, 0xbda792fa3dacfad1U, 0xbc66a3c1bcb42fefU, 0xbd429a2b3da5c5b3U,
  0x3b66a3c13dcf3720U, 0xbd8c8bca3ce6a3c1U, 0x3dcf3720bc102659U, 0x3b2cfad1bc902659U,
  0xbd3eff9cbd8abe82U, 0xbd8c8bcabcd83985U, 0xbd9928bebd8723f3U, 0x3d4634ba3db7ca7eU,
  0xbc975b773d01bc1dU, 0xbc3b650d3da3f86bU, 0xbcd83985bd5bd414U, 0xbdd10467bd7fddaaU,
  0x3d4634ba3ca5c5b3U, 0x3dd49ef6bdc80202U, 0x3bacfad13a66a3c1U, 0x3d4d69d8bd91f3a0U,
  0x3de4d67a3d93c0e8U, 0x3d4d69d8bd81bc1dU, 0x3d4d69d83dda06cdU, 0x3db7ca7ebdc46773U,
  0x3d1af606bda22b24U, 0xbd81bc1dbd1af606U, 0xbca5c5b33daec819U, 0xbc88f13bbd8723f3U,
  0x3d25c5b3bc9e9095U, 0x3c49cf493d49cf49U, 0x3c66a3c1bd8723f3U, 0xbd975b773da05ddcU,
  0x3c9e90953d9af606U, 0xbca5c5b3bda792faU, 0x3dc80202bd25c5b3U, 0x3d37ca7ebd9cc34dU,
  0xbd8389643d838964U, 0xbd3eff9c3dc29a2bU, 0x3d975b773d750dfdU, 0xbd3eff9cbd2cfad1U,
  0xbcacfad13b2cfad1U, 0x3b902659bdb5fd37U, 0xbd9e90953d01bc1dU, 0x3b66a3c1bcacfad1U,
  0x3c5839853bc9cf49U, 0x3ca5c5b33bc9cf49U, 0x3d2960423c66a3c1U, 0xbdaec8193be6a3c1U,
  0x3aeddedcbdbd8d97U, 0xbd83f19ebd968707U, 0x3d361ea13d48b40aU, 0x3da91c7100000000U,
  0x3d9fd1bc3d5791f8U, 0x3cb9d61c3d0d3c53U, 0x3d5b49733dce4743U, 0xbd5b4973bc05cd5cU,
  0xbd414513bd2eafaaU, 0x3d8d3c533d414513U, 0x3cdf00ee3d62b86aU, 0x3da38937bcaaf82eU,
  0x3d9a3e833d39d61cU, 0xbd6ddedc3d8215e0U, 0x3d9687073cb26725U, 0xbdd3da7cbd92cf8cU,
  0xbcc145133d4c6b85U, 0x3dca8fc83d3d8d97U, 0xbcaaf82e3ca38937U, 0xbd754dd3bc414513U,
  0x3c6ddedcbd85cd5cU, 0xbc6ddedc3dbbb1daU, 0xbcb9d61cbceddedcU, 0xbc6ddedcbdc4fc8eU,
  0xbd9c1a413b6ddedcU, 0xbd79054fU, 0x3d8d3c53bc7cbccaU, 0xbdb61ea13d5f00eeU,
  0x3cf54dd33da1ad7aU, 0x3caaf82ebd87a91aU, 0x3cdf00ee3cb9d61cU, 0xbd90f3cebd48b40aU,
  0x3d5b49733d44fc8eU, 0x3a6ddedcbd8215e0U, 0xbdaeafaa3d803a23U, 0xbb326725bd361ea1U,
  0x3c8d3c533d87a91aU, 0x3de2b86abd14ab4aU, 0x3da740b3bcf54dd3U, 0x3c94ab4abd05cd5cU,
  0x3d14ab4abd9df5feU, 0xbdbd8d973c8d3c53U, 0x3dc6d84cbd8d3c53U, 0xbd14ab4abdacd3ecU,
  0x3dca8fc8bc5f00eeU, 0xbc94ab4abcb26725U, 0xbd1862c53d9df5feU, 0xbd0984d73d87a91aU,
  0xbcc14513bdacd3ecU, 0x3d9c1a413d8215e0U, 0xbb3267253da740b3U, 0xbdbbb1da3da1ad7aU,
  0xbd44fc8ebd87a91aU, 0x3d44fc8ebceddedcU, 0x3b94ab4abbeddedcU, 0xbdd1febebd2af82eU,
  0x3d754dd3bdbd8d97U, 0x3dcc6b85bdaaf82eU, 0xbd2389373cd791f8U, 0x3db7fa5e3d5791f8U,
  0xbdd1febebd238937U, 0x3a6ddedc3d414513U, 0xbb6ddedcbd5f00eeU, 0xbdaaf82ebdbbb1daU,
  0x3d8b6095bbd02301U, 0xbc414513bb326725U, 0x3d4c6b85bd1c1a41U, 0x3c7cbccabd0d3c53U,
  0xbdbbb1da3d719658U, 0x3d39d61c3d1862c5U, 0x3d968707bd414513U, 0xbdd791f83c05cd5cU,
  0xbc7cbcca3a6ddedcU, 0xbdbf6955bdbf6955U, 0xbd2389373d2af82eU, 0x3dcc6b85bda91c71U,
  0x3db61ea1bcc14513U, 0xbb6ddedc3d502301U, 0x3dc4fc8ebbeddedcU, 0x3d361ea13d9862c5U,
  0xbd1862c5bda38937U, 0xbc94ab4abcc14513U, 0x3cd791f8bc326725U, 0x3d0215e03db442e3U,
  0xbdb08b67bcaaf82eU, 0x3d62b86abd1c1a41U, 0xbd9a3e83bd39d61cU, 0xbda91c713d5791f8U,
  0x3cc8b40a3da740b3U, 0xbc5023013cc14513U, 0xbd361ea1bca38937U, 0xbdaeafaabdaeafaaU,
  0x3cfcbcca3cf54dd3U, 0xbd85cd5c3c7cbccaU, 0xbd83f19e3d326725U, 0xbb94ab4a3c326725U,
  0xbdb442e33d48b40aU, 0x3aeddedc3c5f00eeU, 0xbd968707bdacd3ecU, 0x3da1ad7a3cdf00eeU,
  0x3c5f00eebdec031eU, 0xbce66fe53c9c1a41U, 0xbd414513bce66fe5U, 0xbd7cbccabd1c1a41U,
  0x3ca38937bd0d3c53U, 0x3dc6d84c3d10f3ceU, 0xbcd023013d48b40aU, 0x3d3267253dd5b63aU,
  0xbd44fc8ebcb26725U, 0xbd5b4973bd92cf8cU, 0xbd92cf8c3d53da7cU, 0xbd1fd1bc3d10f3ceU,
  0x3da1ad7a3d8d3c53U, 0x3c85cd5c3dc8b40aU, 0x3d87a91abdc320d1U, 0x3d8b60953d9a3e83U,
  0xbdaeafaabdc8b40aU, 0xbd8d3c533dc14513U, 0x3bb267253c6ddedcU, 0x3dce4743ba6ddedcU,
  0xbd4c6b85bdb08b67U, 0x3dbf6955bd361ea1U, 0x3d3267253bb26725U, 0x3d0215e0bd4c6b85U,
  0x3cb26725bdc14513U, 0xbda389373cc14513U, 0x3d85cd5c3d10f3ceU, 0x3d8b60953d5f00eeU,
  0x3c326725bdca8fc8U, 0xbd8984d73da91c71U, 0xbd3d8d973dbbb1daU, 0x3b3267253da740b3U,
  0xbd39d61cbc8d3c53U, 0x3dce4743bc238937U, 0x3dd02301bcb26725U, 0xbd719658bc414513U,
  0xbdca8fc83d754dd3U, 0xbcc8b40a3d87a91aU, 0xbd2eafaabd719658U, 0x3d53da7cbd326725U,
  0xbd90f3ce3c326725U, 0x3d87a91a3daaf82eU, 0x3d754dd3bbb26725U, 0x3d8215e0bd8b6095U,
  0xbd246ea83db801edU, 0xbd6ae739bda663c8U, 0xbdb9f70d3da46ea8U, 0xbd6ed17abd98afe5U,
  0xbcb417ac00000000U, 0x3d0cf1223d01325fU, 0x3cac432abdc1cb8fU, 0xbd8afc02bd7e7a7eU,
  0xbd7a903dbd5369b3U, 0x3dac432a3de11d96U, 0xbd1c9a26bd8906e1U, 0xbbfa903dbcfa903dU,
  0x3cd369b33cb417acU, 0x3a7a903dbd8711c1U, 0xbd6ae739bda46ea8U, 0x3dd174933d4b9531U,
  0x3dbfd66e3d10db63U, 0x3cc3c0af3db60cccU, 0xbccb9531bcf2bbbbU, 0xbd94c5a4bcdb3e35U,
  0x3dc7aaf0bd4f7f72U, 0x3ca46ea8bd6ae739U, 0x3d4f7f72bcf2bbbbU, 0xbccb9531bb9c9a26U,
  0x3db801ed3c0cf122U, 0x3bbbec2dbd8711c1U, 0xbcc3c0af3d0906e1U, 0xbdc1cb8f3b3bec2dU,
  0xbd1c9a263d7e7a7eU, 0x3d208467bdb801edU, 0xbd10db63bd92d084U, 0xbdeed17a3d9aa505U,
  0x3c1c9a26bd246ea8U, 0x3d92d084bc6ae739U, 0x3dd17493bc4b9531U, 0x3d4f7f72bc5b3e35U,
  0x3d5f2876bd8cf122U, 0x3d90db63bd8ee643U, 0x3dae384abd2c432aU, 0xbc4b9531bd14c5a4U,
  0xbd5f28763db02d6bU, 0x3dcb9531bcfa903dU, 0xbdc5b5d03d2858e9U, 0x3c8cf1223cdb3e35U,
  0x3d3bec2d3dcb9531U, 0xbd9c9a26bc3bec2dU, 0xbd47aaf03c8cf122U, 0xbd246ea83cbbec2dU,
  0x3db9f70dbd72bbbbU, 0xbcd369b33da858e9U, 0xbc2c432a3dc3c0afU, 0xbda663c8bdb801edU,
  0xbd10db63bc6ae739U, 0xbd0cf1223da27987U, 0x3c5b3e35bd4b9531U, 0x3ca46ea83a7a903dU,
  0xbd8711c1bdeed17aU, 0xbd051ca0bdbbec2dU, 0xbd66fcf8bcbbec2dU, 0xbd4b95313c7a903dU,
  0xbdd174933d6ae739U, 0x3db801ed3dcb9531U, 0x3dd94915bdb60cccU, 0x3ccb95313d832780U,
  0x3d9c9a263db417acU, 0xbafa903dbb9c9a26U, 0x3d76a5fcbceae739U, 0xbdaa4e09bceae739U,
  0x3d5369b33d832780U, 0x3c5b3e353b7a903dU, 0x3ceae7393d8ee643U, 0xbda663c83d7a903dU,
  0xbda858e93d851ca0U, 0x3d7e7a7ebdb417acU, 0xbd01325fbd47aaf0U, 0xbd81325f3b7a903dU,
  0xbd0906e13dae384aU, 0xbda858e93cd369b3U, 0x3c94c5a43d18afe5U, 0x3d3801edbdb02d6bU,
  0x3d246ea83ca46ea8U, 0xbdb417ac3c1c9a26U, 0x3d8ee6433cf2bbbbU, 0xbd90db63bd208467U,
  0x3de8f2183cbbec2dU, 0xbcd369b3bcf2bbbbU, 0x3d8711c13d8afc02U, 0x3d7e7a7ebcfa903dU,
  0x3d8afc023a7a903dU, 0x3d5369b33c94c5a4U, 0x3db801edbc4b9531U, 0xbcfa903dbda27987U,
  0xbda084673afa903dU, 0xbd4f7f72bd72bbbbU, 0x3c3bec2d3b3bec2dU, 0xbd14c5a4bd6ae739U,
  0xbd81325fbc4b9531U, 0x3c3bec2dbcc3c0afU, 0x3d43c0af3d6ed17aU, 0xbcf2bbbbbd0906e1U,
  0x3d7e7a7e3d10db63U, 0xbd47aaf0bd8cf122U, 0x3cdb3e35bd4b9531U, 0x3c94c5a43d3801edU,
  0xbd47aaf0bd4f7f72U, 0x3b3bec2d3d66fcf8U, 0xbde312b73d8ee643U, 0xbdb2228b3dac432aU,
  0xbc851ca0bda46ea8U, 0xbd302d6b3d90db63U, 0x3db2228bbd18afe5U, 0xbd94c5a43c7a903dU,
  0xbd851ca03ccb9531U, 0xbd302d6b3d72bbbbU, 0x3d0906e13bfa903dU, 0x3c7a903dbda27987U,
  0x3cbbec2d3dbde14eU, 0xbd3bec2dbafa903dU, 0xbd90db63bdbde14eU, 0x3d94c5a43c94c5a4U,
  0x3ccb95313c3bec2dU, 0x3d5b3e353d3417acU, 0x3d7e7a7ebd6ae739U, 0x3da46ea8bdb9f70dU,
  0x3bbbec2dbc6ae739U, 0xbd851ca03da46ea8U, 0x3c851ca03d3801edU, 0x3d18afe5bd8711c1U,
  0xbd6312b73d47aaf0U, 0xbd8cf122bdb2228bU, 0x3dc9a011bdc9a011U, 0xbdb02d6bbd98afe5U,
  0xbdb417acbcfa903dU, 0xbdc3c0af3c94c5a4U, 0x3d94c5a43d6312b7U, 0x3ca46ea8bc94c5a4U,
  0x3afa903dbdf89b1cU, 0x3d0906e1bd2858e9U, 0x3db60ccc3cc3c0afU, 0x3da663c8bd832780U,
  0x3d94c5a43d6ed17aU, 0x3d98afe5bc9c9a26U, 0x3d47aaf0bcf2bbbbU, 0x3d5b3e35bcc3c0afU,
  0x3d1f931ebd41c4eeU, 0x3ce3f6bdbda912bbU, 0xbd7ac29d3b365efeU, 0x3dda7720bd7ac29dU,
  0x3d67c3623d8aad91U, 0x3dbfde9b3d6f5cadU, 0x3d8e7a36bd9daccbU, 0x3d7329523db84550U,
  0xbd272c693dcf1130U, 0xbda546163da35fc3U, 0xbd142d2ebc97f9d3U, 0x3db0ac06bdc3ab40U,
  0x3d9613813ca72c69U, 0xbd7e8f423d602a18U, 0x3d602a183d8e7a36U, 0xbc9060893d942d2eU,
  0x3d04fa993d3a2ba3U, 0xbd8e7a36bdb84550U, 0xbd97f9d3bbb65efeU, 0xbd4d2addbd7e8f42U,
  0xbdc1c4ee3d0c93e4U, 0xbbd4c428bda35fc3U, 0x3c4591933d2ec5b3U, 0x3c365efe3df14300U,
  0xbd99e026bd329258U, 0x3db0ac063d17f9d3U, 0x3dcf1130bc9f931eU, 0xbd97f9d3bd3df848U,
  0xbded765abb97f9d3U, 0x3db0ac063d235fc3U, 0x3db478ab3dcb448bU, 0x3db292583daaf90eU,
  0xbd142d2ebdacdf60U, 0xbd41c4ee3ca72c69U, 0xbda35fc33c63f6bdU, 0xbdb0ac06bdcb448bU,
  0x3d63f6bd3c732952U, 0xbd99e0263cbdf848U, 0x3ccd2addbd7ac29dU, 0x3d2ec5b33d942d2eU,
  0x3d7e8f42bb365efeU, 0x3dba2ba33d906089U, 0xbd41c4ee3dc777e5U, 0x3d99e026bbd4c428U,
  0xbcf329523db65efeU, 0x3d6f5cadbceb9008U, 0x3c272c693bd4c428U, 0x3d942d2ebd831446U,
  0x3da35fc3bd732952U, 0xbdaaf90e3d04fa99U, 0x3d8aad913ce3f6bdU, 0xbc459193bd906089U,
  0xbc812df4bd17f9d3U, 0x3d04fa993d5c5d73U, 0x3de2106a3db478abU, 0x3c9f931e3d9bc679U,
  0xbd906089bd8c93e4U, 0x3d17f9d33d8e7a36U, 0xbd3df848bc272c69U, 0xbd9daccbbdc59193U,
  0xbd8aad913bd4c428U, 0xbde02a183d329258U, 0xbd50f7833dd0f783U, 0xbdcd2add3cc59193U,
  0x3daec5b33ca72c69U, 0x3d4d2addbd6f5cadU, 0xbdc3ab403c97f9d3U, 0xbcfac29dbd961381U,
  0xbdcd2add3d04fa99U, 0x3c17f9d33cd4c428U, 0x3d5c5d73bd9daccbU, 0x3d86e0ec3d04fa99U,
  0xbd3292583dacdf60U, 0x3d5890cdbc906089U, 0x3dc591933d54c428U, 0xbd6b90083da72c69U,
  0x3da912bb3d9246dbU, 0xbd86e0ecbcf32952U, 0xbc88c73e3c97f9d3U, 0x3d8aad91bd8aad91U,
  0x3d54c428bd67c362U, 0x3ce3f6bdbd3a2ba3U, 0xbd3a2ba3bb365efeU, 0x3c17f9d33c459193U,
  0xbd08c73ebdc777e5U, 0xbd329258bd7e8f42U, 0xbcb65efebda35fc3U, 0x3d86e0ecbd9246dbU,
  0x3d08c73ebdb0ac06U, 0xbcb65efeU, 0x3dcd2add3d2af90eU, 0x3d3df8483c459193U,
  0xbd812df4bd459193U, 0xbcdc5d73bd4d2addU, 0xbd5c5d73bdbc11f6U, 0xbc812df4bcbdf848U,
  0xbd906089bd67c362U, 0xbdacdf60U, 0xbd67c3623d4d2addU, 0x3af329523c54c428U,
  0xbd3292583c17f9d3U, 0xbdaec5b33d142d2eU, 0xbda912bbbce3f6bdU, 0x3bf32952bd9246dbU,
  0xbc9f931e3ceb9008U, 0x3d5890cd3cb65efeU, 0xbcc591933daec5b3U, 0x3d88c73e3d272c69U,
  0xbd97f9d33d3df848U, 0xbd602a18bdc59193U, 0x3d1f931ebdb29258U, 0xbc9060893ca72c69U,
  0x3d732952bd9bc679U, 0xbd17f9d33ca72c69U, 0x3d961381bd3a2ba3U, 0x3d9bc679bd329258U,
  0x3dc3ab40bc365efeU, 0x3daaf90e3d67c362U, 0xbd7e8f423dde43c5U, 0x3ccd2addbd50f783U,
  0x3cdc5d73bd272c69U, 0x3c63f6bd3c906089U, 0xbdba2ba3bc906089U, 0xbd9f931ebccd2addU,
  0xbc54c428bd831446U, 0x3cf329523b365efeU, 0x3c88c73e3dc59193U, 0x3bf32952bb365efeU,
  0xbd63f6bd3d272c69U, 0x3cf329523db65efeU, 0x3dc3ab40bdb65efeU, 0xbd495e383d54c428U,
  0x3d08c73ebd41c4eeU, 0x3d76f5f8bd495e38U, 0x3d86e0ec3d012df4U, 0x3d235fc3bdcd2addU,
  0xbd5890cd3d63f6bdU, 0xbc812df43db84550U, 0xbd942d2e3d9daccbU, 0x3c88c73e3ce3f6bdU,
  0xbc88c73e3d2af90eU, 0x3d8aad91bc54c428U, 0xbdc1c4ee3d5890cdU, 0xbd6f5cadbc365efeU,
  0x3b7578763d196b4aU, 0xbd91bf86bd5a9f49U, 0xbdb62f683d91bf86U, 0xbd9d412c3d196b4aU,
  0xbd9780593d9d412cU, 0x3d063de1bc8267ffU, 0x3bb81a59bb381a59U, 0x3ca1170dbd71a294U,
  0xbdb259863db06e95U, 0xbd9f2c1dbb996b4aU, 0x3dae83a4bd9d412cU, 0xbdf38d85U,
  0xbd1d412c3d159568U, 0x3cd6c9673d8fd495U, 0xbd063de1bcfd243aU, 0xbdb06e953dc1b10dU,
  0xbcde752bbd9d412cU, 0x3d91bf863af57876U, 0x3dcb47c2bd21170dU, 0xbd8bfeb33da6d7e0U,
  0xbcf57876bd8452f0U, 0x3d3bf03a3dbbf03aU, 0xbdb44477bd5e752bU, 0xbd3444773d2c98b3U,
  0x3cde752b3cbfc61cU, 0x3dbbf03a3d0a13c2U, 0xbd4f1da43cb81a59U, 0x3c28c2d1bd21170dU,
  0x3d21170d3d3bf03aU, 0x3d69f6d0bd996b4aU, 0x3d0de9a4bcedccb2U, 0x3c6620efbd757876U,
  0x3da6d7e0bd2c98b3U, 0x3bb81a59bd381a59U, 0xbd063de1bd6620efU, 0x3d1595683d6dccb2U,
  0xbcf57876bd2c98b3U, 0x3da8c2d1bd8fd495U, 0xbd9b563b3d0de9a4U, 0x3c8267ff3d9f2c1dU,
  0x3cde752b3bb81a59U, 0xbd91bf86bd7d243aU, 0xbd063de1bdcd32b3U, 0xbd8bfeb3bdc95cd1U,
  0x3c8a13c2bc4771e0U, 0x3da301fe3ca1170dU, 0xbd4b47c23d4771e0U, 0xbbd6c967bde24b0dU,
  0x3d8fd4953c996b4aU, 0x3d8de9a4bdcd32b3U, 0x3c996b4abdcf1da4U, 0xbd71a2943af57876U,
  0x3ca1170d3d439bfeU, 0xbdba05493b996b4aU, 0xbcd6c9673ca8c2d1U, 0xbdc39bfe3dcb47c2U,
  0xbd439bfebdd10894U, 0xbcbfc61c3d624b0dU, 0xbdb259863d56c967U, 0x3c0a13c2bb757876U,
  0x3ca1170d3d794e58U, 0xbd0267ffbccf1da4U, 0x3c4771e0bd9b563bU, 0xbdbfc61c3ca8c2d1U,
  0x3bb81a59bd159568U, 0x3dc39bfe3d8de9a4U, 0xbaf57876bce620efU, 0xbd439bfebd2c98b3U,
  0xbb7578763cedccb2U, 0x3bb81a59bd3bf03aU, 0xbd52f3853cedccb2U, 0xbd8fd495bd0de9a4U,
  0xbcd6c967bd063de1U, 0xbd4b47c2bdb44477U, 0xbc6620efbda6d7e0U, 0x3d8452f03d8fd495U,
  0x3d196b4a3dc586efU, 0x3d807d0ebd381a59U, 0xbd978059bbd6c967U, 0xbd7d243abccf1da4U,
  0xbca1170dbd4771e0U, 0x3d063de1bd8fd495U, 0x3c996b4abcb81a59U, 0xbd439bfe3dbfc61cU,
  0xbc56c967bd4b47c2U, 0xbbf57876bda6d7e0U, 0xbdaaadc23dc39bfeU, 0x3d8bfeb3bdd8b458U,
  0xbb757876bd439bfeU, 0xbdb06e95bd0267ffU, 0xbdc95cd13d807d0eU, 0xbd3bf03a3ddc8a3aU,
  0x3b381a59bdc39bfeU, 0x3b996b4a3db25986U, 0xbcf57876bca8c2d1U, 0x3d9d412cbdcf1da4U,
  0xbd71a294bd4b47c2U, 0x3ce620efbde24b0dU, 0x3d2c98b3bd996b4aU, 0x3dba05493cb81a59U,
  0x3d8828d1bc56c967U, 0x3b381a59bd978059U, 0xbd978059bda4ecefU, 0x3d9595683bd6c967U,
  0xbd91bf86bda1170dU, 0x3da6d7e0bd196b4aU, 0x3d91bf863bb81a59U, 0x3cd6c967bd196b4aU,
  0xbd8bfeb3bdba0549U, 0xbd7578763d28c2d1U, 0xbcc771e0bdbfc61cU, 0x3d439bfe3d794e58U,
  0x3d24ecef3db81a59U, 0xbd3fc61cbd28c2d1U, 0x3dbddb2bbc4771e0U, 0x3d21170d3dc1b10dU,
  0x3d978059bdbddb2bU, 0xbdbbf03abd996b4aU, 0xbd6620ef3dba0549U, 0x3c381a593a757876U,
  0xbd24ecefbc56c967U, 0xbcd6c9673d344477U, 0x3dbbf03a3c6620efU, 0x3bd6c9673c196b4aU,
  0x3db44477bdb81a59U, 0xbd3fc61c3d69f6d0U, 0x3db06e95bdbddb2bU, 0xbc8267ff3b381a59U,
  0xbc0a13c2bd3bf03aU, 0x3da4ecef3c91bf86U, 0x3d381a59bc6620efU, 0xbc196b4a3cbfc61cU,
  0x3d71a294bd11bf86U, 0xbdc586ef3daaadc2U, 0x3d24ecef3bf57876U, 0xbb996b4a3da4ecefU,
  0xbda301fe3c0a13c2U, 0x3dc771e0bccf1da4U, 0xbd8267ffbdd10894U, 0x3dcb47c2bd9d412cU,
  0xbcedccb2bd8828d1U, 0x3cd6c967bccf1da4U, 0xbd4f1da43c196b4aU, 0x3d381a593c381a59U,
  0x3dab501b3d609c3aU, 0x3d1478a0bd36bbd9U, 0xbc55307dbdc9c4bfU, 0xbda968d13c90aa0bU,
  0xbd6fd68cbd853e4eU, 0x3dbe59023d1c15c9U, 0xbc9847343da1cba8U, 0xbd890ce23db4d48eU,
  0x3d2f1eb0bd9478a0U, 0x3da968d1bbd5307dU, 0x3d683963bb36bbd9U, 0x3d7b424abdd717c7U,
  0xbdd8ff11bdcd9354U, 0xbd2b501b3d609c3aU, 0x3dea20adbdb6bbd9U, 0xbd55307d3c278187U,
  0xbd965fea3ccd9354U, 0x3d835704bc890ce2U, 0x3d6fd68cbda1cba8U, 0xbdb6bbd9bb984734U,
  0xbde65219bd9dfd13U, 0x3c90aa0b3ca78187U, 0xbd55307dbda78187U, 0x3daf1eb0bd36bbd9U,
  0xbdab501bbbb6bbd9U, 0x3ce46acfbc890ce2U, 0xbd7f10de3d422796U, 0x3db105fabcd5307dU,
  0x3d23b2f23dd161e8U, 0xbc45f62bbc278187U, 0x3c90aa0bbdba8a6dU, 0xbd8cdb77bcbe5902U,
  0x3d5161e8bd45f62bU, 0xbdb8a323bd2b501bU, 0x3d2b501bbd890ce2U, 0x3d965fea3d2f1eb0U,
  0xbd6c07f8bd9fe45dU, 0x3d6c07f83de83963U, 0x3db4d48e3dcf7a9eU, 0xbdf1bdd63d9c15c9U,
  0xbc984734bd9fe45dU, 0xbd816fb9bda1cba8U, 0xbd9fe45dbcaf1eb0U, 0xbd3e5902bdab501bU,
  0xbaf3a521bdb6bbd9U, 0xbd9a2e7f3a73a521U, 0x3dd717c73c984734U, 0x3dc22796bc9fe45dU,
  0x3c36bbd93d1fe45dU, 0x3c184734bd835704U, 0xbd890ce23c890ce2U, 0x3d053e4e3d58ff11U,
  0x3c890ce2bd2b501bU, 0x3d8ec2c13d3e5902U, 0xbda1cba83bd5307dU, 0xbb73a5213d73a521U,
  0x3d45f62b3cc5f62bU, 0xbb73a5213d8af42dU, 0xbde09c3abc184734U, 0xbdaf1eb03ca78187U,
  0x3d7b424abc9fe45dU, 0xbc9847343bf3a521U, 0xbdc5f62b3c9fe45dU, 0xbd7773b53c646acfU,
  0x3d9291563d6fd68cU, 0xbd9fe45dbdbc71b7U, 0xbc36bbd93b984734U, 0xbd1fe45d3bf3a521U,
  0x3c36bbd93d8af42dU, 0xbdb105fa3d853e4eU, 0xbc73a521bdc40ee0U, 0x3c73a5213d0cdb77U,
  0xbd8ec2c1bd853e4eU, 0x3d422796bdbc71b7U, 0xbdc7dd75U, 0xbda3b2f23d422796U,
  0xbd9a2e7f3d7b424aU, 0x3caf1eb0bce46acfU, 0xbd4d93543db105faU, 0xbdc22796bdb105faU,
  0x3d32ed44bd4d9354U, 0xbd7773b5bd1c15c9U, 0xbc2781873bb6bbd9U, 0x3b73a5213c184734U,
  0xbbd5307d3dc22796U, 0x3d8af42dbd90aa0bU, 0x3d1c15c9bd422796U, 0xbdaf1eb03d1c15c9U,
  0x3d053e4e3d853e4eU, 0x3d816fb9bdc0404cU, 0x3dcf7a9ebd6c07f8U, 0x3d184734bdc5f62bU,
  0x3c90aa0bbd9a2e7fU, 0xbd9fe45dbd7b424aU, 0xbd4227963d4d9354U, 0xbd683963bd835704U,
  0xbd55307d3d016fb9U, 0xbd965fea3c090ce2U, 0x3d2f1eb0bcfb424aU, 0xbcc5f62b3cbe5902U,
  0x3db105fabc90aa0bU, 0x3d8357043d890ce2U, 0x3cf3a5213d816fb9U, 0xbda78187bda1cba8U,
  0x3db2ed44bcb6bbd9U, 0x3d3e5902bc984734U, 0x3dcbac09bddae65bU, 0x3daf1eb0bc646acfU,
  0x3dba8a6dbd853e4eU, 0x3cbe59023c36bbd9U, 0xbd053e4e3d32ed44U, 0x3c816fb9bd053e4eU,
  0xbbb6bbd9bd278187U, 0x3de83963bc890ce2U, 0xbd2b501bbaf3a521U, 0xbd853e4ebc890ce2U,
  0x3da968d13bd5307dU, 0xbcbe59023b36bbd9U, 0xbdad3765bd1c15c9U, 0xbdbc71b7bdc0404cU,
  0x3d0cdb77bd7b424aU, 0x3d73a5213dbc71b7U, 0xbd32ed443c816fb9U, 0xbd8cdb77bc816fb9U,
  0xbd609c3a3db6bbd9U, 0x3d2b501bbc890ce2U, 0x3cdccda6bbd5307dU, 0x3b73a521U,
  0x3d016fb9bdbe5902U, 0xbce46acfbc45f62bU, 0xbd7f10debd7b424aU, 0x3d016fb93d853e4eU,
  0x3d965fea3bf3a521U, 0xbd3a8a6dbcbe5902U, 0xbc90aa0b3d8ec2c1U, 0xbc55307d3c9fe45dU,
  0x3cbe59023db4d48eU, 0xbdba8a6dbc984734U, 0x3c816fb93d8af42dU, 0x3ca781873cdccda6U,
  0x3d7f10de3b984734U, 0x3d45f62bbd890ce2U, 0x3c9847343d929156U, 0xbd9c15c93db105faU,
  0x3bc78b9b3c8d5839U, 0xbdc5777c3c95a8b4U, 0xbd68cd8a3da85dcbU, 0xbdb4d6853dcfdc17U,
  0xbdbb12e2bdd40455U, 0xbe03fdadbda00d4fU, 0x3ba649acbb478b9bU, 0xbd15a8b4bda4358dU,
  0x3cd82c933d6cf5c8U, 0x3ccfdc173ce8cd8aU, 0x3d5404553bc78b9bU, 0xbdc5777c3da2216eU,
  0x3ca649acbd9be511U, 0xbc15a8b43c36eaa4U, 0x3c582c933d939496U, 0x3dc78b9bbd9be511U,
  0xbd9df930bd8d5839U, 0xbc68cd8a3c796e82U, 0x3db0ae473d9df930U, 0x3cf11e063d19d0f2U,
  0x3dbd2701bc8d5839U, 0xbd5c54d1bd092ffbU, 0x3c8d58393bc78b9bU, 0xbdd618743da85dcbU,
  0xbd3b12e23db2c266U, 0xbd7d96c0bd9df930U, 0xbce8cd8abd2a71eaU, 0xbd478b9b3db2c266U,
  0x3d118077bb478b9bU, 0x3d19d0f2bd0d5839U, 0xbd892ffb3d0507bdU, 0xbdf11e063d8507bdU,
  0x3d3f3b1fU, 0x3c8d58393c15a8b4U, 0xbdc5777c3be8cd8aU, 0x3dbf3b1f3d15a8b4U,
  0xbdbd2701bcf96e82U, 0x3d0507bd3d9df930U, 0x3d36eaa4bd82f39eU, 0x3daa71ea3d8b441aU,
  0x3d22216ebd1df930U, 0xba8507bd3c68cd8aU, 0xbd64a54dbdcbb3d9U, 0xbc582c933d9be511U,
  0xbd7d96c03db2c266U, 0xba8507bdbcb6eaa4U, 0x3d36eaa43b8507bdU, 0x3c8507bd3bc78b9bU,
  0xbd3f3b1f3d43635dU, 0xbd9df930bd796e82U, 0xbd8d5839bd918077U, 0xbd754644bcbf3b1fU,
  0xbdc3635d3d092ffbU, 0x3dcdc7f83d8507bdU, 0xbd4fdc173a8507bdU, 0x3c15a8b4bdb0ae47U,
  0xbdb4d6853dac8609U, 0xbd754644bd32c266U, 0xbd68cd8abdaa71eaU, 0x3d68cd8abd43635dU,
  0xbd892ffb3ce8cd8aU, 0xbdef09e73d99d0f2U, 0xbd9df9303d32c266U, 0x3dda40b2bdac8609U,
  0x3d3b12e23d19d0f2U, 0xbd4bb3d9bda85dcbU, 0x3b0507bdbda00d4fU, 0xbd918077bd5c54d1U,
  0xbd3f3b1f3bc78b9bU, 0x3d32c266bda85dcbU, 0xbd5c54d13d32c266U, 0x3d711e06bc95a8b4U,
  0xbdc5777cbd8d5839U, 0x3d9df9303c478b9bU, 0x3cc78b9b3c2649acU, 0xbd8d5839bd8d5839U,
  0xbd80df7fbd8d5839U, 0xbb8507bdbd118077U, 0x3cae9a283c9df930U, 0xbdcbb3d9bdc3635dU,
  0x3d8d5839bd8d5839U, 0x3ce07d0f3c8507bdU, 0x3dbb12e23c8d5839U, 0x3cf11e063c8d5839U,
  0xbd36eaa43d2a71eaU, 0x3dbf3b1fbd99d0f2U, 0xbdd618743be8cd8aU, 0xbd00df7f3cae9a28U,
  0x3d711e06bd892ffbU, 0x3d711e06bdbd2701U, 0x3d15a8b4bd118077U, 0xbd754644bdbf3b1fU,
  0xbd43635d3ce07d0fU, 0x3d4bb3d9bc8d5839U, 0xbd8d5839bda4358dU, 0x3d80df7fbce8cd8aU,
  0xbc8d58393d43635dU, 0xbc8507bd3dae9a28U, 0x3d8f6c58bdb2c266U, 0x3ce07d0fbdae9a28U,
  0xbd0d58393d582c93U, 0x3be8cd8a3d607d0fU, 0xbbe8cd8a3d607d0fU, 0x3d7d96c0bde4a54dU,
  0xbc2649ac3d36eaa4U, 0x3d99d0f2bdb6eaa4U, 0x3ce07d0f3da2216eU, 0xbb478b9b3c95a8b4U,
  0xba8507bd3cbf3b1fU, 0x3d15a8b43d6cf5c8U, 0x3d6cf5c8bdb6eaa4U, 0x3ddc54d1bdac8609U,
  0xbdaa71eabdc14f3eU, 0x3d97bcd33d36eaa4U, 0x3cf11e063d918077U, 0xbc8507bdbcbf3b1fU,
  0x3d00df7f3d0507bdU, 0x3c68cd8abddc54d1U, 0xbd32c266bd871bdcU, 0x3dc78b9bbdb2c266U,
  0x3d82f39e3ccfdc17U, 0x3cf11e06bda2216eU, 0x3cb6eaa43d68cd8aU, 0x3c68cd8abd3b12e2U,
  0x3dc99fbabdc78b9bU, 0xbd7d96c0bd3f3b1fU, 0x3d582c93bb8507bdU, 0xbd796e82bd8b441aU,
  0xbcd82c933c796e82U, 0xbdb4d685bdb0ae47U, 0x3d9394963ce8cd8aU, 0xbdbd27013d0d5839U,
  0xbca649ac3d43635dU, 0x3dae9a283d9be511U, 0x3d3f3b1fbd36eaa4U, 0xbd3b12e2bb0507bdU,
  0x3d8f6c583d9be511U, 0xbd43635dbde6b96cU, 0x3d8507bdbd8f6c58U, 0x3ce8cd8a3d5c54d1U,
  0xbd22216e3ccfdc17U, 0xbcae9a283de07d0fU, 0xbd918077bc95a8b4U, 0x3d8f6c58bc2649acU,
  0xbd88c85e3cf4c4ddU, 0xbce65eee3d292db7U, 0x3d8e2e973d08c85eU, 0xbd91c8133d1394d1U,
  0xbcf4c4ddbd08c85eU, 0xbdcef94abd62c573U, 0x3da1fac0bcfbf7d5U, 0xbd7f9150bdbb2d22U,
  0xbcc993113b2cc733U, 0xbdb060ae3da3c77dU, 0xbd25943b3dc26019U, 0x3da92db73d545f84U,
  0x3d052ee2bd3ec69dU, 0xbd972e4cbdc42cd7U, 0x3d25943bbd172e4cU, 0xbd172e4cbd69f86aU,
  0xbd7bf7d5bda760f9U, 0x3dae93f13d57f8ffU, 0xbc57f8ffbd7f9150U, 0xbca5943b3bc99311U,
  0xbd2cc733bd5b927bU, 0x3d91c8133d0c61d9U, 0xbd9c9486bdb96064U, 0x3d91c8133d88c85eU,
  0x3cacc733bd7f9150U, 0x3d5b927b3cc99311U, 0x3d2cc733bd3793a6U, 0xbdcd2c8c3d21fac0U,
  0xbc819566bd91c813U, 0x3cb3fa2abcc99311U, 0xbcf4c4ddbc88c85eU, 0xbc88c85e3d5f2bf7U,
  0x3d019566bda1fac0U, 0x3dcb5fcebd08c85eU, 0xbcacc733bdbcf9dfU, 0xbd172e4c3da1fac0U,
  0xbcfbf7d53d5f2bf7U, 0x3cb3fa2abdb3fa2aU, 0xbcacc7333d1e6144U, 0xbd172e4c3dd45f84U,
  0x3c2cc733bd1e6144U, 0x3d819566bd1394d1U, 0xbdbec69d3d3793a6U, 0xbd50c6083da1fac0U,
  0xbcc993113dae93f1U, 0x3dbcf9dfbc88c85eU, 0x3cc260193d1394d1U, 0x3c9e6144bd33fa2aU,
  0xbced91e63d3793a6U, 0x3c9e61443d545f84U, 0xbdcb5fcebd3b2d22U, 0x3dacc733bd0ffb55U,
  0xbced91e6bd91c813U, 0x3c88c85e3d292db7U, 0x3db3fa2a3b8ffb55U, 0xbc88c85ebcd7f8ffU,
  0x3d9e61443d8e2e97U, 0x3d665eeebdcd2c8cU, 0x3d25943bbc819566U, 0x3db060ae3d665eeeU,
  0x3dc0935bbd1394d1U, 0x3d69f86a3d95618fU, 0x3ca5943bbd5f2bf7U, 0xbcbb2d22bd8c61d9U,
  0xbc2cc7333dc42cd7U, 0x3d91c8133d3ec69dU, 0xbdcd2c8cbd69f86aU, 0xbd5f2bf7bcbb2d22U,
  0x3c019566bcdf2bf7U, 0x3d86fba0bdc0935bU, 0x3c4993113d21fac0U, 0x3cc99311bd052ee2U,
  0x3d4d2c8c3cc99311U, 0x3d819566bd8a951bU, 0xbd91c8133cdf2bf7U, 0xbd91c813bdc0935bU,
  0xbc0ffb553db3fa2aU, 0xbd8362243daafa75U, 0xbc819566bcd7f8ffU, 0x3c3b2d223cf4c4ddU,
  0x3d3060ae3da3c77dU, 0x3d8c61d93d0ffb55U, 0x3d9394d13dd0c608U, 0xbd57f8ff3dc0935bU,
  0xbd6d91e63c1e6144U, 0x3de49230bd665eeeU, 0x3dd0c608bbe65eeeU, 0xbce65eee3d7bf7d5U,
  0x3d3b2d223d5f2bf7U, 0xbd4d2c8cbcc99311U, 0x3d21fac0bae65eeeU, 0x3dacc733bd5f2bf7U,
  0xbda3c77d3cb3fa2aU, 0x3dbec69d3d836224U, 0x3d785e593d836224U, 0xbd1ac7c83d785e59U,
  0xbbacc733bdbb2d22U, 0xbdbec69d3d712b61U, 0x3d172e4cbc2cc733U, 0x3d25943bbd6d91e6U,
  0xbd50c6083c019566U, 0x3d7bf7d53c972e4cU, 0x3d8a951bbdd9c5bdU, 0x3d3ec69dbdc5f995U,
  0xbdc5f9953d3793a6U, 0x3d1e6144bdd62c42U, 0x3da02e023d819566U, 0xbddb927bbda5943bU,
  0xbdc260193cb3fa2aU, 0xbdc42cd73b8ffb55U, 0x3d3060ae3db060aeU, 0x3d8195663db793a6U,
  0xbd6d91e6bdd7f8ffU, 0x3c0ffb553db22d6cU, 0xbc819566bd3b2d22U, 0x3dbec69d3d88c85eU,
  0xbdb5c6e8ba665eeeU, 0x3d292db73db3fa2aU, 0x3d9c9486bd052ee2U, 0x3d0c61d93d172e4cU,
  0x3d052ee23dd0c608U, 0xbd3793a63c74c4ddU, 0xbc499311bdc42cd7U, 0x3d3ec69dbd4d2c8cU,
  0x3a665eee3c8ffb55U, 0xbda02e02ba665eeeU, 0xbc3b2d22bda760f9U, 0xbd4d2c8c3d98fb0aU,
  0x3d972e4cbdacc733U, 0x3d9c94863c3b2d22U, 0x3c88c85ebd785e59U, 0x3c9e61443d9c9486U,
  0xbd86fba0bd88c85eU, 0x3db960643c74c4ddU, 0xbd3ec69d3d9e6144U, 0xbcc993113c9e6144U,
  0xbc0ffb55bd3b2d22U, 0xbca5943b3cf4c4ddU, 0x3c819566bc9e6144U, 0xbdbb2d22U,
  0xbdbcf9df3d172e4cU, 0xbdb793a6bd972e4cU, 0x3d5f2bf7bd7bf7d5U, 0x3d88c85ebc88c85eU,
  0x3d9032d3bd98c823U, 0x3d8954fabd1032d3U, 0xbd9710ac3db965ebU, 0x3ca4cc5fbccdff77U,
  0xbc4dff773db0d09bU, 0x3c4dff773cabaa38U, 0xbd7054b53da9f2c2U, 0x3d13a1c03d3cd4d7U,
  0xba5bbb29bd516e63U, 0x3db28811bd98c823U, 0xbcb965ebbc6976dcU, 0xbdd84c3dbdd325daU,
  0x3d80bfaa3d77328eU, 0x3d7aa17bbd8b0c70U, 0xbd1a7f99bbf7328eU, 0xbcfe10683d9710acU,
  0xbd7aa17bbdcfb6edU, 0x3d9c370fbd6ce5c8U, 0x3c0954fabd955936U, 0x3cc043c43d0954faU,
  0x3d7054b53d2f1925U, 0xbd8cc3e6bd5bbb29U, 0x3d955936badbbb29U, 0xbd98c8233c8954faU,
  0x3d9710acbd3965ebU, 0x3d9a7f99bd5bbb29U, 0xbd827720bdb965ebU, 0x3db0d09bbadbbb29U,
  0xbce29902bdc7219dU, 0x3d6ce5c83d3cd4d7U, 0xbdc7219d3dc7219dU, 0x3c5bbb293d2baa38U,
  0xbcfe10683cfe1068U, 0xbd98c8233dad61aeU, 0xbd879d833c827720U, 0xbd7aa17bbda15d72U,
  0x3d2baa38bd1a7f99U, 0x3da314e9bd24cc5fU, 0xbd0cc3e6bd584c3dU, 0x3d24cc5f3d1032d3U,
  0xbd8954fa3da314e9U, 0x3b8954fa3d7e1068U, 0x3c8954fa3daf1925U, 0xbd4dff773d2f1925U,
  0x3bf7328e3d516e63U, 0xbccdff77bd3965ebU, 0xbda314e9bd2f1925U, 0xbc9dee86bd0cc3e6U,
  0x3dd84c3dbdd325daU, 0xbc24cc5f3d0954faU, 0x3c8277203cdbbb29U, 0x3d91ea493d13a1c0U,
  0xbc4dff773c8954faU, 0xbccdff773dc7219dU, 0x3d5bbb293d54dd50U, 0xbb24cc5f3d93a1c0U,
  0xbdca908abdcc4800U, 0x3ca4cc5f3c1710acU, 0xbdb288113d516e63U, 0x3da314e9bc328811U,
  0x3cc043c43d0cc3e6U, 0x3c9dee863dbcd4d7U, 0xbbf7328e3d4dff77U, 0xbdb288113d9fa5fcU,
  0xbd6607efbd9a7f99U, 0x3dbcd4d73dca908aU, 0x3d73c3a23d9032d3U, 0xbdb43f883c77328eU,
  0xbd9dee86bd85e60dU, 0x3c4dff773da4cc5fU, 0xbdabaa383d955936U, 0xbcf054b5bda683d5U,
  0x3dad61ae3d9710acU, 0xbd842e973db7ae74U, 0x3db0d09b3d5f2a16U, 0xbd027720bdc7219dU,
  0xbd85e60d3d955936U, 0x3d9fa5fc3d955936U, 0x3d516e633d35f6feU, 0x3dad61ae3bf7328eU,
  0x3ce29902bd43b2b1U, 0xbc77328ebd584c3dU, 0xbc1710ac3d93a1c0U, 0x3d3965ebbdcc4800U,
  0x3cc7219d3d8b0c70U, 0xbbdbbb293da9f2c2U, 0x3cd4dd503b24cc5fU, 0xbdaf1925bdaf1925U,
  0xbdbb1d61bd54dd50U, 0x3bdbbb29bbf7328eU, 0xbd3965ebbcf054b5U, 0xbd80bfaa3d955936U,
  0x3d7e10683d2baa38U, 0x3dd4dd503d80bfaaU, 0xbd9710acbdb965ebU, 0xbd7e1068bbc043c4U,
  0xbdc7219d3d47219dU, 0x3dabaa383d8b0c70U, 0x3d283b4cbd8cc3e6U, 0xbc77328e3d0954faU,
  0xbcc7219dbc6976dcU, 0xbd98c8233d7054b5U, 0xbcdbbb293d1dee86U, 0xbd9032d3bd6607efU,
  0x3cabaa383dabaa38U, 0xbc9710acbd6976dcU, 0x3d8cc3e6bdc8d914U, 0xbd6976dc3d9710acU,
  0x3d1dee863dda03b3U, 0x3dca908a3db965ebU, 0xba5bbb29bd7054b5U, 0xbd6299023d98c823U,
  0x3b24cc5fbccdff77U, 0xbcabaa383dd694c6U, 0xbd43b2b1bcd4dd50U, 0xbd9a7f993dda03b3U,
  0x3dd325da3d24cc5fU, 0x3d629902bd027720U, 0xbdb5f6fe3cabaa38U, 0x3d6299023d9dee86U,
  0xbd1032d33d879d83U, 0x3d584c3d3d91ea49U, 0xbda83b4cbd80bfaaU, 0x3d80bfaa3d43b2b1U,
  0x3d5bbb29bce976dcU, 0x3db5f6fe3d43b2b1U, 0x3c4dff77bdca908aU, 0x3dc043c43cf7328eU,
  0x3cf7328ebdcc4800U, 0xbd8e7b5dbcdbbb29U, 0xbd1a7f99bdb5f6feU, 0xbadbbb29bda15d72U,
  0x3d7054b53d7e1068U, 0xbcc7219dbc0954faU, 0xbd6976dcbd2baa38U, 0xbadbbb293dda03b3U,
  0x3bc043c4bc8954faU, 0xbd215d723dbcd4d7U, 0xbd91ea49bd1a7f99U, 0xbd6976dc3cabaa38U,
  0xbdbb1d613da314e9U, 0x3db965ebbdc3b2b1U, 0x3d35f6febd584c3dU, 0x3dc8d914bdcc4800U,
  0x3d17fa00bd99d477U, 0x3d17fa003d9d8964U, 0x3d1445133c7c0f07U, 0xbd01bc71bc7c0f07U,
  0x3c7c0f07bce5d177U, 0x3c2318c83da318c8U, 0x3d1baeee3d17fa00U, 0xbdb95658bcd6fdc2U,
  0xbaed3b523da318c8U, 0xbd1445133d5348d5U, 0x3ce5d1773c8cdb39U, 0x3d40c032bd70f03fU,
  0x3d1090263caa82a3U, 0x3c31ec7d3dbd0b45U, 0xbd1f63db3d482a0dU, 0x3cf4a52cbc40c032U,
  0xbdd6fdc2bd85715eU, 0xbce5d177U, 0x3c7c0f07bd5ab2afU, 0xbcd6fdc23c144513U,
  0xbd17fa003da4f33fU, 0x3d8cdb39bd40c032U, 0xbd2318c8bcb1ec7dU, 0xbd482a0d3d482a0dU,
  0xbd65d177bdd8d839U, 0x3c144513bdbb30ceU, 0xbd8cdb393dac5d19U, 0xbdb1ec7d3da318c8U,
  0xbd09264bbc85715eU, 0x3d961f8a3bed3b52U, 0x3d99d4773d8cdb39U, 0xbc05715e3d926a9cU,
  0xbc1445133d7fc3f4U, 0x3aed3b52bd7c0f07U, 0x3dd6fdc23d0cdb39U, 0x3d2a82a33db01207U,
  0xbce5d177bdcdb971U, 0x3d0cdb39bd6d3b52U, 0x3c2318c8bc2318c8U, 0xbd3d0b45bd74a52cU,
  0xbd5e679dbd70f03fU, 0xbcb1ec7d3d395658U, 0xbd17fa00bd4f93e8U, 0xbddc8d26bd70f03fU,
  0xbd482a0dbdd6fdc2U, 0x3c5e679dbd0cdb39U, 0xbd4bdefabcd6fdc2U, 0xbcfc0f07bd926a9cU,
  0x3d7c0f07bc5e679dU, 0x3cfc0f07bdae3790U, 0xbda6cdb5bd4bdefaU, 0xbd8cdb39bd109026U,
  0xbccf93e8bcaa82a3U, 0x3d05715ebd0cdb39U, 0xbb31ec7dbc05715eU, 0xbcaa82a33d17fa00U,
  0xbd56fdc23ca318c8U, 0xbd4475203d8b00c2U, 0x3d9d89643ccf93e8U, 0xbbed3b52bbb1ec7dU,
  0x3dac5d193d961f8aU, 0x3dbd0b453dcbdefaU, 0x3cc0c0323cd6fdc2U, 0x3d31ec7d3d6d3b52U,
  0x3d785a1a3d395658U, 0x3d8396e7bdc0c032U, 0xbc6d3b52bd1f63dbU, 0x3c944513bb31ec7dU,
  0xbd74a52c3d56fdc2U, 0xbdeb60db3db3c6f4U, 0xbd3956583d4f93e8U, 0xbdc0c0323cd6fdc2U,
  0x3d2318c83d0cdb39U, 0x3dbb30cebddc8d26U, 0xbd785a1a3c4f93e8U, 0xbda8a82cbd1f63dbU,
  0x3d7c0f07bd35a16bU, 0xbd109026bd144513U, 0xbdbee5bcbd40c032U, 0x3d395658bd40c032U,
  0x3d5e679d3c05715eU, 0xbd2a82a3bcc0c032U, 0x3da6cdb53d5e679dU, 0x3c85715e3dbee5bcU,
  0x3d5e679d3c944513U, 0x3c9baeeebd6d3b52U, 0xbdae3790bc5e679dU, 0xbdb77be13d9d8964U,
  0xbd0cdb393bb1ec7dU, 0x3d65d177bd944513U, 0xbc6d3b52bca318c8U, 0x3d89264bbd70f03fU,
  0xbcb1ec7dbc9baeeeU, 0xbcc0c0323b944513U, 0x3d31ec7dbd56fdc2U, 0x3d482a0d3d4bdefaU,
  0xbddab2afbdb5a16bU, 0xbced3b52bdb77be1U, 0x3db77be13d40c032U, 0x3db01207bd9baeeeU,
  0xbd1f63db3d5348d5U, 0x3cd6fdc23db95658U, 0xbc4f93e8bdbee5bcU, 0x3db5a16b3d4bdefaU,
  0x3dbd0b45bce5d177U, 0x3d85715e3dac5d19U, 0x3cb1ec7d3cc0c032U, 0xbd785a1a3d482a0dU,
  0x3d8b00c23bb1ec7dU, 0x3db5a16bbcf4a52cU, 0x3cb1ec7d3db5a16bU, 0xbc9baeeebcd6fdc2U,
  0xbd482a0d3d9d8964U, 0x3cb956583ccf93e8U, 0x3dc29aa9bd7fc3f4U, 0xbcfc0f07bd85715eU,
  0xbaed3b52bd447520U, 0xbd6986643d447520U, 0x3dc82a0d3dbb30ceU, 0x3c4f93e83d7fc3f4U,
  0x3cde679dbd65d177U, 0xbd4f93e83d3d0b45U, 0xbd5348d5bd8cdb39U, 0x3cd6fdc23d31ec7dU,
  0xbd1f63db3db1ec7dU, 0xbdb1ec7d00000000U, 0x3d40c0323d2a82a3U, 0x3cc0c032bd9baeeeU,
  0xbd926a9c3d6d3b52U, 0x3b31ec7d3ccf93e8U, 0x3ddc8d263d2e3790U, 0xbd2318c8bd2318c8U,
  0x3d4f93e8bd9f63dbU, 0xbc5e679d3d1baeeeU, 0xbc5e679dbd874bd5U, 0x3c5e679d3da8a82cU,
  0x3c4f93e8bcc82a0dU, 0x3c5e679d3d7c0f07U, 0x3d9baeee3c05715eU, 0x3d6d3b523b6d3b52U,
  0x3d05715e3d874bd5U, 0xbd89264b3dc82a0dU, 0xbd944513bd109026U, 0xbd6986643d144513U,
  0xbd9364c9bdc7a26eU, 0x3d54b1d8bdb31c80U, 0x3d918728bd98fdadU, 0xbdbe4e483cdfe3a0U,
  0x3dd68f79bd0a10a3U, 0x3d9364c9bda7eab8U, 0xbda07432ba6ed0aaU, 0x3d2ba5fabaeed0aaU,
  0xbd118728bda42f75U, 0x3da251d4bd27eab8U, 0x3d065560bdba9305U, 0x3d7dbdb53cd0f695U,
  0xbd2ba5fabc9cb8f0U, 0xbbb31c803d95426aU, 0xbda9c859bc8dcbe5U, 0xbc5fe3a0bd639ee2U,
  0xbdc7a26ebd18fdadU, 0x3cb31c803dc2098aU, 0xbaeed0aabdbe4e48U, 0x3d9364c9bdc02be9U,
  0xbd97200cbc242f75U, 0xbc5fe3a0U, 0xbdb13edebdb13edeU, 0xbdd0f695bdc5c4cdU,
  0xbd8477bfbc50f695U, 0xbdb13ede3d8dcbe5U, 0x3d0dcbe5bcb31c80U, 0xbd95426abda60d16U,
  0xbc065560bd8bee44U, 0x3daf613dbd883301U, 0x3d918728bd764730U, 0x3c9cb8f0bcc2098aU,
  0xbd0655603d728bedU, 0xbcf647303dbe4e48U, 0x3dad839cbd029a1dU, 0x3d27eab8bd242f75U,
  0xbd829a1dbdaba5faU, 0xbd7dbdb5bd95426aU, 0x3dc7a26ebc331c80U, 0x3cfdbdb5bdb4fa21U,
  0x3cdfe3a03d50f695U, 0x3db13edebd45c4cdU, 0x3dcb5db1bd8dcbe5U, 0xbd675a253d1cb8f0U,
  0xbcd0f695bd0a10a3U, 0x3cba9305bdc02be9U, 0x3d6b1568bd27eab8U, 0xbd9e96913d764730U,
  0x3db13edebbb31c80U, 0x3bd0f695bc9cb8f0U, 0x3bd0f695bd8a10a3U, 0x3d80bc7cbd6ed0aaU,
  0xbdb4fa213d8bee44U, 0x3cdfe3a0bcfdbdb5U, 0xbdd0f695bceed0aaU, 0x3d207432baeed0aaU,
  0x3dda4abc3d5fe3a0U, 0x3d639ee23dde05feU, 0xbcf64730bda251d4U, 0xbd97200c3d97200cU,
  0xbb95426a3dcf18f4U, 0x3d029a1dbd80bc7cU, 0x3d97200c3d15426aU, 0x3d9adb4e3d5fe3a0U,
  0x3d98fdad3c6ed0aaU, 0xbd8477bf3c065560U, 0x3c50f695bd0dcbe5U, 0x3dad839c3d5c285dU,
  0xbd3a93053ce75a25U, 0x3cd86d1a3dc02be9U, 0x3d27eab8bd918728U, 0xbd27eab8bdbc70a6U,
  0xbd9364c9ba6ed0aaU, 0x3d029a1dbcfdbdb5U, 0x3b95426a3d4d3b52U, 0xbbb31c803dcf18f4U,
  0x3b6ed0aa3dbc70a6U, 0xbd15426abdbc70a6U, 0x3c8dcbe53dd4b1d8U, 0xbdcb5db13c6ed0aaU,
  0x3d5fe3a03daba5faU, 0x3d883301bcfdbdb5U, 0x3dc980103dc7a26eU, 0xbceed0aabd80bc7cU,
  0xbb331c803d675a25U, 0x3c0655603dcd3b52U, 0x3beed0aa3da9c859U, 0x3d8a10a33d918728U,
  0xbcaba5fa3d764730U, 0xbd639ee2bdaf613dU, 0xbc065560bd029a1dU, 0x3d2ba5fabd45c4cdU,
  0x3d829a1d3db8b564U, 0xbbeed0aabcdfe3a0U, 0xbd5fe3a0bd42098aU, 0xbc15426a3b95426aU,
  0xbd98fdad3d50f695U, 0x3c6ed0aabd0a10a3U, 0x3d6ed0aa3dcb5db1U, 0x3db4fa21bd242f75U,
  0xbd242f753dc5c4cdU, 0x3cd0f6953d9e9691U, 0x3d4980103da60d16U, 0xbd728bedbcd86d1aU,
  0xbd5c285d3d118728U, 0xbdc2098abd8477bfU, 0x3d7a0272bd639ee2U, 0x3d5c285d3d865560U,
  0xbd80bc7c3b331c80U, 0xbdbc70a63d4d3b52U, 0x3d8a10a33d639ee2U, 0x3d6b1568bc331c80U,
  0xbd27eab8bd2f613dU, 0xbda7eab8bd50f695U, 0xbd1cb8f03da42f75U, 0x3bb31c803caba5faU,
  0x3b331c803d8477bfU, 0xbc95426abc865560U, 0x3d3e4e483dba9305U, 0xbcdfe3a0bda9c859U,
  0xbd7dbdb53d80bc7cU, 0xbcf647303d5c285dU, 0x3d8833013db4fa21U, 0xbc15426abd18fdadU,
  0xbd15426abd586d1aU, 0x3cfdbdb5bdd2d436U, 0x3d18fdad3dc3e72cU, 0xbd7a02723d883301U,
  0x3d15426a3dda4abcU, 0x3d639ee23d118728U, 0xbb6ed0aa3d8fa986U, 0xbd95426abd42098aU,
  0xbd4d3b52bde39ee2U, 0xbd675a253d6ed0aaU, 0x3cc2098a3ca42f75U, 0x3d3a9305bdecf309U,
  0x3d95426abd8477bfU, 0xbd242f75bda42f75U, 0x3caba5fa3da9c859U, 0x3dc02be93cf64730U,
  0x3ceed0aabcd86d1aU, 0x3c8655603d4d3b52U, 0x3daf613dbd8a10a3U, 0x3ddc285dbcaba5faU,
  0xbbec7ce5bc6c7ce5U, 0xbb6c7ce5bd3c7386U, 0x3c315dac3d832d47U, 0x3d93ce0fbb93ce0fU,
  0xbcb15dacbda0bce4U, 0xbd7792c03d0c6a28U, 0xbd6518febd2295ddU, 0x3daf84b2bc13ce0fU,
  0xbd29f9c43dcd144eU, 0xbca9f9c43d1b31f6U, 0x3da820cb3dc5b067U, 0x3d9d0af03d9d0af0U,
  0x3d91f5153d9958fcU, 0x3c40257abcb8c193U, 0x3d7ef6a7bc6c7ce5U, 0xbcfb44b33d61670aU,
  0xbbceed483dd82a29U, 0x3dcd144e3c2295ddU, 0x3db336a53d9b31f6U, 0xbcc0257abd9ee3eaU,
  0xbda295dd3d350f9fU, 0xbdc78961bdc3d76eU, 0x3d2dabb83d7792c0U, 0xbd3c73863d315dacU,
  0xbcb8c193bd29f9c4U, 0x3d40257a3db50f9fU, 0xbcc789613db50f9fU, 0x3d4eed48bdc5b067U,
  0xbdc0257a3d7792c0U, 0xbc315dac3d2647d1U, 0xbdcd144e3c13ce0fU, 0xbdd47836bd1b31f6U,
  0x3dabd2bebd6c7ce5U, 0xbd8a912eU, 0xbda46ed73da9f9c4U, 0xbcddb517bb6c7ce5U,
  0x3d6c7ce53d4eed48U, 0xbda647d13ca9f9c4U, 0xbd81544dbd13ce0fU, 0x3da295ddbd529f3cU,
  0xbd93ce0fbd81544dU, 0xbd8c6a283d7792c0U, 0x3cddb517bc93ce0fU, 0x3b6c7ce53ddf8e10U,
  0xbc315dac3d9b31f6U, 0xbc315dacbdc0257aU, 0xbcd6512fbd86df3bU, 0xbcb8c1933d315dacU,
  0x3c6c7ce5bd178003U, 0xbdb15dacbd43d76eU, 0xbca9f9c4bcc78961U, 0x3d3c73863d43d76eU,
  0x3d88b834bbb15dacU, 0x3d8506413d2647d1U, 0x3d178003bdb336a5U, 0x3cceed483cec7ce5U,
  0xbd0c6a28bd38c193U, 0xbdbc73863aec7ce5U, 0x3d6c7ce53d5db517U, 0xbd9d0af03bb15dacU,
  0x3d0c6a283d7792c0U, 0xbd8a912e3d93ce0fU, 0xbbec7ce53c2295ddU, 0x3deaa3ebbc8c6a28U,
  0x3dc9625b3cceed48U, 0x3d2dabb83d81544dU, 0xbd050641bda647d1U, 0x3c13ce0f3d978003U,
  0xbd43d76e3a6c7ce5U, 0x3d8e4322bca295ddU, 0xbdeaa3eb3d88b834U, 0xbd4789613d38c193U,
  0x3dd47836bdb50f9fU, 0xbd529f3cU, 0xbc315dac3b6c7ce5U, 0xbdcb3b55bcc78961U,
  0xba6c7ce53dadabb8U, 0xbaec7ce53d29f9c4U, 0xbd9ee3eabce518feU, 0xbc8c6a28bdc1fe74U,
  0xbd9958fc3d8c6a28U, 0xbd01544d3d178003U, 0x3c050641bd4b3b55U, 0xbc2295ddbcc78961U,
  0x3ddbdc1d3dc5b067U, 0xbd901c1b3cc78961U, 0x3c9b31f6bd40257aU, 0x3d350f9fbcec7ce5U,
  0x3dbe4c803d8c6a28U, 0x3d6518fe3dd6512fU, 0x3d850641bd43d76eU, 0x3d8a912ebc315dacU,
  0xbda0bce4bd7ef6a7U, 0xbd81544d3d978003U, 0xbd178003bdabd2beU, 0x3da0bce43d81544dU,
  0x3c6c7ce5bcd6512fU, 0xbd6c7ce53c93ce0fU, 0xbdd478363c13ce0fU, 0xbc2295ddbd13ce0fU,
  0x3cceed48bdaf84b2U, 0x3de34004bca9f9c4U, 0x3db15dacbcf3e0ccU, 0xbd6c7ce53d315dacU,
  0xbb6c7ce5bc40257aU, 0x3d350f9fbcceed48U, 0x3dc0257abb6c7ce5U, 0xbd4b3b553c40257aU,
  0xbd7792c03d43d76eU, 0xbcd6512f3ca295ddU, 0x3d2647d1bc850641U, 0x3d7ef6a73d901c1bU,
  0x3ce518febcfb44b3U, 0xbd8a912ebaec7ce5U, 0xbdc5b067bc5db517U, 0xbcddb5173a6c7ce5U,
  0xbcd6512f3cc0257aU, 0x3d13ce0fbcb15dacU, 0xbda647d13d56512fU, 0x3c315dacbdddb517U,
  0xbda0bce4bd7792c0U, 0x3c8506413dc3d76eU, 0x3da9f9c43c315dacU, 0xbda295dd3da0bce4U,
  0x3cec7ce5bda295ddU, 0xbcfb44b33dadabb8U, 0x3cec7ce5bc7b44b3U, 0xbc315dac3cc0257aU,
  0xbd7b44b33d978003U, 0x3d73e0cc3c5db517U, 0xbd6518febc850641U, 0xbdceed48bbceed48U,
  0xbd7792c03c4eed48U, 0xbd9958fcbd702ed8U, 0x3da0bce43d1ee3eaU, 0xbd9958fc3d38c193U,
  0xbdadabb8bc5db517U, 0xbd88b83400000000U, 0xbd73e0ccbd8e4322U, 0xbd93ce0f3cec7ce5U,
  0x3d9958fcbd315dacU, 0x3d91f515bda647d1U, 0x3daf84b2bd2dabb8U, 0xbda46ed7bdd47836U,
  0x3d8d38b5bd729c80U, 0xbcadcfa4bdbfea9bU, 0x3da4c229bd520591U, 0xbb2dcfa4bda691a8U,
  0xbd85fab93d38ac9fU, 0x3d92a733bd10d7b4U, 0x3d4e66933dc38999U, 0xbb90d7b4bbe7bf86U,
  0xbdbfea9bbd763b7eU, 0xbdb50da03d964631U, 0x3d59438d3ce08189U, 0xbd0d38b53d9815b0U,
  0xbcd9438dbcfd797aU, 0x3ca691a8bd99e52fU, 0xbda2f2aa3c2dcfa4U, 0xbd3c4b9dbccac795U,
  0x3be7bf86bd2a30a6U, 0xbc67bf86bdbe1b1cU, 0x3d3c4b9d3da4c229U, 0xbc59438d3d9bb4aeU,
  0xbcf63b7ebc763b7eU, 0xbd1f53ac3d8b6936U, 0xbae7bf86bcb50da0U, 0xbdb50da0bd825bbbU,
  0x3b67bf863d729c80U, 0x3d4e66933dc8f816U, 0x3d05fab93d6b5e84U, 0x3db6dd1f3d9d842dU,
  0x3b2dcfa4bdcac795U, 0x3c59438d3d025bbbU, 0xbd1bb4aebd92a733U, 0xbdaa30a63dba7c1eU,
  0x3cb50da0bdbc4b9dU, 0x3daf9f233d9bb4aeU, 0xbc10d7b43d90d7b4U, 0x3d9d842d3d1bb4aeU,
  0xbd8d38b5bbe7bf86U, 0x3b2dcfa4bc763b7eU, 0xbdc8f8163d350da0U, 0x3c1f53acbda86127U,
  0x3dbc4b9dbd3fea9bU, 0xbc025bbbbcbc4b9dU, 0x3d6420883d92a733U, 0x3d842b3abc9815b0U,
  0x3da2f2aa3cbc4b9dU, 0x3c825bbbbd472897U, 0x3d4ac795bd3fea9bU, 0xbd0999b73cb50da0U,
  0xbd38ac9fbd9d842dU, 0xbde5f0073d59438dU, 0x3d520591bd2691a8U, 0x3b67bf863dcc9714U,
  0xbd9d842d3d350da0U, 0xbcbc4b9dbd3fea9bU, 0x3daf9f233db8ac9fU, 0xbd9f53acbcb50da0U,
  0x3dba7c1ebd1f53acU, 0xbdc8f816bc825bbbU, 0xbd1476b2bd729c80U, 0xbd825bbbbae7bf86U,
  0xbd1f53ac3d808c3cU, 0xbdcac795bcfd797aU, 0x3d1476b23d438999U, 0xbdcc97143d8999b7U,
  0x3d92a7333d964631U, 0xbd964631bd2691a8U, 0x3dc559183d87ca38U, 0xbd6efd823d964631U,
  0xbcfd797a3d99e52fU, 0x3dcac795bd842b3aU, 0xbd05fab93d1476b2U, 0x3d3fea9b3d9476b2U,
  0x3db33e213a67bf86U, 0x3ce7bf863dc8f816U, 0x3d10d7b43d7d797aU, 0xbd9bb4ae00000000U,
  0xbdba7c1ebd964631U, 0x3d025bbbbd964631U, 0xbd5205913dd5a48fU, 0x3db8ac9fbd9476b2U,
  0xbd0999b73dd03612U, 0x3d472897bdc1ba1aU, 0x3badcfa43c90d7b4U, 0x3dc728973d99e52fU,
  0x3dc8f8163d92a733U, 0xbd4e6693bd438999U, 0xbd67bf863c9f53acU, 0xbde420883d2691a8U,
  0xbd1476b2bd9476b2U, 0xbd808c3c3d55a48fU, 0xbdd9438d3dd7740eU, 0xbd9f53acbd05fab9U,
  0x3db8ac9fbcd20591U, 0x3db16ea2bd9f53acU, 0xbd642088bdb33e21U, 0xbd7d797a3ddb130cU,
  0xbd59438dbdbc4b9dU, 0xbda691a8bdb6dd1fU, 0x3d825bbbbbe7bf86U, 0x3db6dd1f3cbc4b9dU,
  0xbddb130c3d520591U, 0xbcc389993badcfa4U, 0xbc67bf863d825bbbU, 0xbd59438d3d05fab9U,
  0xbdb8ac9fbc10d7b4U, 0xbdbfea9bbd92a733U, 0x3c10d7b4bd3c4b9dU, 0xbda2f2aa3c2dcfa4U,
  0xbbadcfa43c825bbbU, 0x3d2a30a6bdb50da0U, 0xbd59438dbd9bb4aeU, 0xbd3fea9bbdc1ba1aU,
  0x3d1476b2bc1f53acU, 0xbd6b5e843ce08189U, 0xbb2dcfa4bd9815b0U, 0x3d92a7333d9d842dU,
  0xbd316ea23cbc4b9dU, 0xbd85fab93da1232bU, 0x3da86127bdc1ba1aU, 0x3b2dcfa4bceefd82U,
  0xbc1f53acbc2dcfa4U, 0x3d9815b0bc9f53acU, 0x3daa30a6bd05fab9U, 0x3db8ac9f00000000U,
  0x3daa30a63c90d7b4U, 0xbd1815b03ccac795U, 0xbd608189bdbfea9bU, 0xbd92a733bd825bbbU,
  0xbd1476b23daa30a6U, 0x3c025bbbbc2dcfa4U, 0xbd4e6693bd9bb4aeU, 0xbd9815b03dbfea9bU,
  0xbd350da0bdb50da0U, 0x3d1815b0bdc8f816U, 0x3dce6693bd2a30a6U, 0xbc90d7b43d642088U,
  0x3da86127bd0999b7U, 0xbdc72897bbcac795U, 0xbda2f2aa3d350da0U, 0xbdb6dd1fbae7bf86U,
  0xbdac0025bcadcfa4U, 0xbd842b3a3d1476b2U, 0x3d5ce28bbd2691a8U, 0x3d642088bd4e6693U,
  0x3d8fd1dfbd8a6d34U, 0xbdb75eca3d375ecaU, 0xbd3af73c3c817016U, 0x3d6284263d7816d5U,
  0x3d1a9b37bcdeebb4U, 0xbdc5c0933c1e33a9U, 0x3da398543d28fd00U, 0x3cc22821bdc05be8U,
  0x3d08a0fbbd375ecaU, 0x3b2c9572bd28fd00U, 0xbc57bacf3dbe8faeU, 0x3c9e33a9bd86d4c1U,
  0x3c57bacfU, 0xbc2c9572bd4cf178U, 0x3c4959063dae61acU, 0x3db59290bc88a0fbU,
  0xbd1a9b373d8a6d34U, 0x3cac95723d9a9b37U, 0x3c495906bd5089eaU, 0x3d050888bda1cc1bU,
  0x3dae61ac3db59290U, 0x3d21cc1bbd375ecaU, 0xbd1a9b373d54225dU, 0x3d936a523cbaf73cU,
  0x3d0508883d6d4d7dU, 0x3d5b5341bae61c99U, 0xbb661c993d3af73cU, 0x3c661c99bd2c9572U,
  0xbdccf1783c017016U, 0x3d0508883ddb5341U, 0xbdac95723c3af73cU, 0xbcbaf73c3dd4225dU,
  0x3d08a0fb3daac939U, 0xbdae61ac3d050888U, 0x3d1a9b373db75ecaU, 0x3d8c396d3d936a52U,
  0xbdb75eca3d5089eaU, 0xbdc78cccbd9a9b37U, 0x3dd7bacf3b8fd1dfU, 0xbd70e5f03bc95906U,
  0xbced4d7dbcbaf73cU, 0xbdbaf73cU, 0x3c0fd1dfbd833c4fU, 0xbc57bacf3d7baf47U,
  0xbd08a0fb3cc95906U, 0x3dbe8fae3d08a0fbU, 0xbcd7bacf3d3af73cU, 0x3db1fa1ebd08a0fbU,
  0x3d8c396dbbac9572U, 0x3d0fd1dfbd050888U, 0xbd6284263c9e33a9U, 0x3d6d4d7dbd57bacfU,
  0xbd0c396dbdd98708U, 0x3d3e8fae3c2c9572U, 0x3da8fd003d833c4fU, 0x3d5eebb4bd747e62U,
  0xbced4d7dbde4505fU, 0xbd69b50b3d21cc1bU, 0xbd375ecabb8fd1dfU, 0xbda730c73da39854U,
  0x3d8c396d3d495906U, 0x3d54225d3d8e05a6U, 0xbdc05be8bd3af73cU, 0xbc8fd1dfbd302de5U,
  0xbdbcc3753d28fd00U, 0xbd98cefd3d33c657U, 0x3d9e33a9bc747e62U, 0x3da1cc1b3d86d4c1U,
  0x3d628426bd4cf178U, 0x3d747e62bd69b50bU, 0x3d9c6770bc817016U, 0xbd25648e3d86d4c1U,
  0xbdcb253fbd88a0fbU, 0xbd28fd00bcdeebb4U, 0xbdd98708bd495906U, 0xbd747e623d7816d5U,
  0x3d4228213d88a0fbU, 0x3c4959063d45c093U, 0xbd21cc1bbca5648eU, 0xbd5eebb400000000U,
  0x3c9702c4bc747e62U, 0x3d9e33a9bdc5c093U, 0xbd45c0933d45c093U, 0xbb661c993c9e33a9U,
  0x3da730c73d3e8faeU, 0xbdb1fa1ebd1702c4U, 0x3d8508883d3e8faeU, 0xbcbaf73cbc747e62U,
  0x3d3af73c3d8a6d34U, 0x3bac95723d2c9572U, 0xbd7816d53c017016U, 0xbd936a523dcebdb1U,
  0xbc8170163d9702c4U, 0xbdae61ac3c88a0fbU, 0x3bac95723db3c657U, 0xbc88a0fbbdac9572U,
  0xbd375eca3d70e5f0U, 0x3d8e05a6bdb92b03U, 0xbda8fd003d28fd00U, 0x3d4959063dd5ee96U,
  0xbca5648ebca5648eU, 0xbd8c396dbd9a9b37U, 0x3da8fd003c57bacfU, 0xbd919e19bda8fd00U,
  0x3c817016bd850888U, 0xbc2c9572bdbaf73cU, 0xbdc78ccc00000000U, 0x3c1e33a9bae61c99U,
  0x3d936a523bac9572U, 0xbd95368b3be61c99U, 0x3b2c9572bdd4225dU, 0x3d25648e3c017016U,
  0x3d8e05a63d21cc1bU, 0xbd54225d3dae61acU, 0x3d2c9572bde28426U, 0xbc0fd1dfbd45c093U,
  0xbd70e5f0bc495906U, 0x3c8fd1dfbcc95906U, 0x3d747e623d8e05a6U, 0xbdb75ecabb661c99U,
  0xbdb02de53c3af73cU, 0x3d7baf47ba661c99U, 0xbc2c9572bd5b5341U, 0x3c9e33a9bd54225dU,
  0x3bac95723cc95906U, 0xbd98cefdbdc05be8U, 0x3db02de5bdc3f45aU, 0xbae61c99bc88a0fbU,
  0xbd817016bdd7bacfU, 0x3b2c9572bb661c99U, 0x3ca5648ebdb59290U, 0xbc2c9572bd833c4fU,
  0x3ce61c993d017016U, 0xbb2c95723c661c99U, 0xbd9fffe23d5b5341U, 0x3be61c99bd1e33a9U,
  0xbd302de53d919e19U, 0x3db3c6573cb3c657U, 0xbd8fd1dfbbe61c99U, 0x3cf47e623cd7bacfU,
  0xbd33c657bb8fd1dfU, 0x3a661c993d9fffe2U, 0xbde28426bdbaf73cU, 0xbca5648ebd422821U,
  0xbdc36ac3bca78015U, 0xbce6501dbc35756cU, 0xbc6d4ac83cbc7018U, 0xbdbe2ec3bcd85ac6U,
  0x3dacbc16bd77c2caU, 0x3dbab16dbc5f5571U, 0xbd97cc133d51601aU, 0x3dc6e819bbfb4020U,
  0x3dc5296e3d960d68U, 0x3da5c16abc5f5571U, 0xbd97cc13bd198abeU, 0x3adf5571bd8b9567U,
  0xbdbc7018U, 0xbd3c70183d77c2caU, 0xbd2e7ac1bd2afd6bU, 0xbdb0396bbcae7ac1U,
  0xbcd85ac6bcbc7018U, 0x3dc5296e3c929012U, 0xbd9b49693d960d68U, 0xbd881811bdc36ac3U,
  0xbd77c2cabd744574U, 0x3cd1601abbc36ac3U, 0xbd3c70183d9ec6bfU, 0x3db5756c3d998abeU,
  0xbcd1601a3dc5296eU, 0x3bc36ac3bdd85ac6U, 0xbdbfed6d3d8b9567U, 0x3d69cd73bd4a656fU,
  0x3d3fed6dbdc1ac18U, 0x3d5f5571bc929012U, 0x3cf44574bda78015U, 0x3bc36ac3bc35756cU,
  0xbd35756cbd278015U, 0xbd0b95673bfb4020U, 0xbd1290123d865966U, 0xbc9290123d2afd6bU,
  0x3dc36ac3bdc36ac3U, 0x3d9b4969bd865966U, 0x3d97cc133d881811U, 0x3d82dc10bd960d68U,
  0xbd8818113d881811U, 0xba5f5571bd198abeU, 0x3d7445743da08569U, 0x3c198abebd90d168U,
  0x3cdf55713d89d6bcU, 0xbdda1971bd278015U, 0xbd35756cU, 0xbdc36ac3bbc36ac3U,
  0x3b278015bbfb4020U, 0x3d811d66bd585ac6U, 0x3dca656f3b278015U, 0x3d5bd81cbc849abbU,
  0x3b278015bc278015U, 0xbdbab16d3dcfa16fU, 0xbd960d683dcc241aU, 0xbc51601a3dcde2c5U,
  0x3d436ac33d011d66U, 0x3c51601abd8b9567U, 0xbd90d1683db1f816U, 0xbdd1601abd8f12bdU,
  0x3cf445743da24414U, 0xbd8f12bdbd2402bfU, 0x3cd1601abd849abbU, 0xbd35756c3ba78015U,
  0x3cf445743cb5756cU, 0x3b278015bd960d68U, 0xbcdf55713da08569U, 0xbd46e8193da5c16aU,
  0x3d2780153bc36ac3U, 0x3dae7ac13da402bfU, 0xbd929012bd944ebdU, 0x3dcc241abd69cd73U,
  0xbd998abe3dd31ec5U, 0xbcd1601abd9d0814U, 0xbd9b49693d998abeU, 0xbcd85ac6bdbab16dU,
  0x3d70c81e3d66501dU, 0x3d8f12bd3b5f5571U, 0x3db3b6c13d744574U, 0x3dacbc163c7b4020U,
  0xbdae7ac1bdc6e819U, 0x3cbc70183d160d68U, 0x3dacbc16bb5f5571U, 0xbc5f5571bb5f5571U,
  0x3d77c2ca3cb5756cU, 0xbdae7ac13d8d5412U, 0xbd97cc133d82dc10U, 0x3b8b9567bcdf5571U,
  0xbdd85ac63cae7ac1U, 0x3dbab16dbd811d66U, 0xbd77c2cabdd69c1bU, 0xbb2780153d2402bfU,
  0x3dc8a6c43dc1ac18U, 0x3c51601a3d208569U, 0xbbfb4020bddd96c6U, 0x3ced4ac83daafd6bU,
  0xbdaafd6b3d049abbU, 0xbd2afd6b3dc5296eU, 0xbd0f12bdbd8f12bdU, 0x3bdf55713d811d66U,
  0xbd585ac63db0396bU, 0x3d9290123dc8a6c4U, 0x3da24414bc929012U, 0x3dcfa16fbd881811U,
  0x3da244143d998abeU, 0xbd436ac3bdcde2c5U, 0xbbc36ac3bd0b9567U, 0xbd849abb3d9b4969U,
  0xbd9b4969bd160d68U, 0xbd97cc133ced4ac8U, 0x3c35756cbd049abbU, 0x3db3b6c13d35756cU,
  0xbd881811bd54dd70U, 0xbd2afd6bbd31f816U, 0xbd944ebd3cdf5571U, 0xbd97cc13bcdf5571U,
  0x3c35756c3d6d4ac8U, 0x3d66501dbd998abeU, 0x3d160d683d90d168U, 0xbdc36ac3bc436ac3U,
  0x3c849abb3ddd96c6U, 0x3d7ebd753dc1ac18U, 0x3d9290123d38f2c2U, 0x3d929012bd849abbU,
  0xbd4de2c53d9d0814U, 0x3c198abe00000000U, 0x3d89d6bc3dbab16dU, 0x3d0f12bdbd46e819U,
  0xba5f55713d66501dU, 0xbd8f12bd3d9b4969U, 0x3da402bfbdc8a6c4U, 0xbba78015bdc1ac18U,
  0x3d90d1683d929012U, 0xbd1d08143a5f5571U, 0xbbdf55713da08569U, 0x3d5f5571bdb8f2c2U,
  0x3d6d4ac83d849abbU, 0x3d89d6bcbbdf5571U, 0x3db1f8163d97cc13U, 0xbd849abbbd9d0814U,
  0x3dbab16dbd811d66U, 0x3d8d5412bc35756cU, 0xbc6d4ac8bdbe2ec3U, 0xbd1290123d944ebdU,
  0xbd07e09f3c8f0764U, 0x3d5a1e783d044d3cU, 0x3d844d3cbdc116c6U, 0xbd19c18bbca47bb3U,
  0x3d2f35da3dcf6450U, 0xbcebff64bdb65c9fU, 0x3daf35da3b8f0764U, 0xbd9f1e9f3d19c18bU,
  0xbc568b153c2ba278U, 0xbd162e29bc8f0764U, 0x3dbf4d15bd99c18bU, 0x3c0f07643c483d8bU,
  0xbd2f35dabdb0ff8bU, 0xbcb9f0023d20e850U, 0x3dd2f7b33d8616edU, 0x3dd2f7b3bd5db1daU,
  0x3c00b9da3db492eeU, 0x3da9d8c6bd1d54eeU, 0x3d686c02bc732629U, 0xbd365c9fbdb9f002U,
  0xbd044d3c3dc116c6U, 0x3dc2e0783dc116c6U, 0x3ae4d89f3c64d89fU, 0x3d280f153dc673daU,
  0xbd6bff64bd90d115U, 0xbc2ba2783d247bb3U, 0x3d89aa503c962e29U, 0xbc00b9da3d89aa50U,
  0x3cc116c63d19c18bU, 0x3c39f002bdb2c93dU, 0x3d247bb3bdbd8364U, 0xbd9f1e9f3d64d89fU,
  0x3ae4d89fbd365c9fU, 0xbd19c18bbd64d89fU, 0xbdd854c7bd8616edU, 0x3da80f153c568b15U,
  0x3d8f0764bd64d89fU, 0xbcf32629bdb492eeU, 0xbd6bff64bc1d54eeU, 0xbc87e09f3d4116c6U,
  0xbd2f35da3dad6c29U, 0x3d8b74013cddb1daU, 0xbc80b9da3dd2f7b3U, 0xbd89aa503c962e29U,
  0xbd52f7b33d7de051U, 0xbd946477bd90d115U, 0x3cebff64bdaf35daU, 0xbd844d3c3c87e09fU,
  0x3d9f1e9fbdaf35daU, 0x3da64564bdbbb9b3U, 0xbdbbb9b3bccf6450U, 0xbd97f7da3d97f7daU,
  0x3dd2f7b33da9d8c6U, 0xbd044d3cbd0f0764U, 0xbccf64503d20e850U, 0x3cebff64bb2ba278U,
  0xbd5db1dabda0e850U, 0x3cb2c93dbd9d54eeU, 0xbae4d89f3dbf4d15U, 0x3bc83d8b3db65c9fU,
  0x3d4f6450bd8d3db2U, 0xbd32c93d3d2f35daU, 0x3dc116c63d9b8b3cU, 0xbc0f07643db2c93dU,
  0x3d962e293c9d54eeU, 0xbc2ba2783b2ba278U, 0x3db492eebcc83d8bU, 0x3cd68b15bc87e09fU,
  0xbdc673da3db65c9fU, 0x3d0b74013d90d115U, 0xbd52f7b3bc39f002U, 0x3d8d3db200000000U,
  0xbd2ba2783d52f7b3U, 0x3dcbd0eebdaba278U, 0x3dd4c164bd9b8b3cU, 0xbcebff643d280f15U,
  0x3cb2c93d3d6f92c7U, 0xbd44aa293d5a1e78U, 0xbd4f6450bdcf6450U, 0xbd87e09f3d0f0764U,
  0xbd1d54ee3d365c9fU, 0xbd3d83643cd68b15U, 0x3d76b98c3ddbe829U, 0xbdbbb9b33d962e29U,
  0xbc87e09f3cd68b15U, 0xbdcf64503dad6c29U, 0x3a64d89fbd44aa29U, 0x3d3d8364bd89aa50U,
  0x3ccf64503d76b98cU, 0x3cfa4ceebdb65c9fU, 0x3d946477bd8616edU, 0x3da0e850bdad6c29U,
  0x3dd68b15bcddb1daU, 0x3db492ee3b64d89fU, 0x3c64d89f3db82650U, 0xbdbbb9b3bce4d89fU,
  0x3d365c9f3d844d3cU, 0xbd89aa503da0e850U, 0x3d07e09f3d0b7401U, 0xbc483d8b3d9d54eeU,
  0xbce4d89f3dad6c29U, 0xbd568b153c87e09fU, 0x3d929ac63db0ff8bU, 0x3d7a4cee3c87e09fU,
  0x3d44aa29bd2ba278U, 0x3caba2783de30eeeU, 0xbdaf35dabdb65c9fU, 0x3d844d3c3d129ac6U,
  0xbcebff643dc4aa29U, 0x3db492ee3d82838bU, 0x3d8d3db2bc80b9daU, 0xbd90d1153caba278U,
  0xbc732629bdb9f002U, 0x3d6bff643db9f002U, 0xbd9464773db0ff8bU, 0x3da6456400000000U,
  0x3daba27800000000U, 0xbbaba278bc2ba278U, 0x3ddbe8293db2c93dU, 0x3c8f0764bd4116c6U,
  0xbc64d89fbd0b7401U, 0x3dcbd0eebcc83d8bU, 0x3dd4c1643dcf6450U, 0x3d9d54ee3d9b8b3cU,
  0xbdd68b153c87e09fU, 0xbda9d8c63cc116c6U, 0x3d1d54eebdb82650U, 0x3d89aa503be4d89fU,
  0xbd2f35da3dd2f7b3U, 0x3cc83d8b3d9b8b3cU, 0xbd07e09fbda64564U, 0xbcaba278bd0f0764U,
  0x3d32c93dbdaba278U, 0x3db492eebd97f7daU, 0x3d7a4ceebd20e850U, 0x3daba2783d9f1e9fU,
  0x3c64d89f3d365c9fU, 0x3d2f35dabca47bb3U, 0xbc7326293b2ba278U, 0xbd7a4ceebd07e09fU,
  0xbd9b8b3c3db82650U, 0x3dddb1da3c0f0764U, 0x3d7de0513cddb1daU, 0x3ca47bb3bdc116c6U,
  0x3d70563fbd82c584U, 0x3d2d2f173db27c49U, 0xbd064e513db27c49U, 0xbdb98de2bc947182U,
  0xbca9a64bbda0d04cU, 0xbd497579bd2d2f17U, 0xbdd24b77bda45919U, 0xbb62330f3d29a64bU,
  0xbdd798aa3d29a64bU, 0x3c0d5fe93dc263e0U, 0x3c9b831abbe2330fU, 0xbdc5ecad3c540fdeU,
  0xbd0d5fe9bd8d5fe9U, 0xbd37c97c3ddce5dcU, 0xbdc09f7a3dc5ecadU, 0x3dbd16aebdb60516U,
  0xbdab6ab13d9635e8U, 0x3c45ecadbd1f0be6U, 0x3c1b831abd1f0be6U, 0x3d37c97c3c7e7970U,
  0xbd02c5843cbedb14U, 0x3d29a64bbb62330fU, 0x3d947182bca9a64bU, 0xbcfe79703b62330fU,
  0xbda7e1e53c70563fU, 0xbd3edb14bb62330fU, 0xbd9635e83d37c97cU, 0x3b29a64bbd2d2f17U,
  0x3d4cfe453d8f244fU, 0x3d4263e03b29a64bU, 0xbc1b831abd261d7fU, 0x3d99beb43dad2f17U,
  0xbda9a64b3d30b7e3U, 0xbdb0b7e33d8b9b83U, 0xbd10e8b53cccfe45U, 0x3c0d5fe93d147182U,
  0x3dbd16ae3be2330fU, 0xbd65bbdb3c70563fU, 0x3d5798aa3c0d5fe9U, 0xbdb7c97c3d5b2176U,
  0xbd8b9b833ca9a64bU, 0xbc45ecad3c864e51U, 0x3dccfe453db60516U, 0x3b29a64bbd6ccd73U,
  0xbd9d4780bd7e7970U, 0x3c8d5fe9bcccfe45U, 0x3dc7b113bd3440b0U, 0xbb62330fbde06ea8U,
  0x3c8d5fe9bd497579U, 0x3d3b5248U, 0xbd8b9b833cf767d8U, 0xbda0d04c3da45919U,
  0xbd8d5fe9bc70563fU, 0xbd4cfe45bd9635e8U, 0x3d5798aabae2330fU, 0x3d540fdebcf767d8U,
  0xbd0d5fe9bd3b5248U, 0xbda0d04cbd17fa4eU, 0x3d2d2f17bdb440b0U, 0x3d9b831abd540fdeU,
  0x3dcb39df3da9a64bU, 0xbc1b831a3c0d5fe9U, 0x3ddce5dcbd3440b0U, 0x3c1b831abd90e8b5U,
  0x3d99beb43d497579U, 0xbd508711bd45ecadU, 0x3da0d04c3d864e51U, 0x3d45ecadbd89d71dU,
  0x3c540fdebd497579U, 0x3c540fdebd9d4780U, 0xbda7e1e53d82c584U, 0x3d29a64bbcfe7970U,
  0x3d508711ba62330fU, 0xbcfe79703c37c97cU, 0x3c62330fbda45919U, 0xbd65bbdbbcf767d8U,
  0x3d0d5fe93b29a64bU, 0xbc62330fbd8d5fe9U, 0xbc45ecad3dc97579U, 0xbdc09f7a3c7e7970U,
  0x3d65bbdb3d92ad1bU, 0x3d9b831abd6944a7U, 0x3cb7c97c3d65bbdbU, 0xbdcb39dfbd147182U,
  0xbd4975793ca294b2U, 0xbdc5ecadbd45ecadU, 0x3d73df0cbdb440b0U, 0x3d5b21763d82c584U,
  0x3dab6ab1bd1f0be6U, 0xbd9471823ce2330fU, 0xbdcb39dfbb29a64bU, 0x3da61d7f3c29a64bU,
  0x3d97fa4ebd7767d8U, 0xbd7767d83d10e8b5U, 0xbdccfe453cfe7970U, 0x3dc428473cf0563fU,
  0xbd30b7e3bd30b7e3U, 0xbd1f0be63b62330fU, 0x3ce944a7bbfe7970U, 0x3d97fa4ebdad2f17U,
  0x3dd24b77bd5b2176U, 0x3c62330f3d02c584U, 0x3d5b21763da61d7fU, 0x3d8812b7bda61d7fU,
  0x3d8812b7bd17fa4eU, 0x3cbedb143d02c584U, 0xbca294b2bd7767d8U, 0xbd8489eabd45ecadU,
  0xbdb440b03d1b831aU, 0xbd7af0a43db7c97cU, 0x3b8d5fe9bbe2330fU, 0xbcf767d83c37c97cU,
  0x3dc5ecad3be2330fU, 0xbba9a64bbd9f0be6U, 0xbd90e8b5bd2294b2U, 0x3bfe7970bd62330fU,
  0xbd3b5248U, 0x3dc09f7abcd40fdeU, 0x3d99beb43d99beb4U, 0x3bfe7970bd29a64bU,
  0x3d45ecadbdab6ab1U, 0x3cb0b7e33d3b5248U, 0x3be2330f3dbd16aeU, 0xbd5eaa42bce2330fU,
  0xbcc5ecad3d30b7e3U, 0x3c8d5fe9bdc7b113U, 0x3ca9a64bbdc42847U, 0x3dd5d4443cb7c97cU,
  0x3d4cfe453c540fdeU, 0xbc45ecad3dad2f17U, 0xbd37c97cbcb0b7e3U, 0x3ba9a64bbcc5ecadU,
  0xbd90e8b5bda0d04cU, 0x3d1b831abdb7c97cU, 0x3d864e51bda0d04cU, 0xbd97fa4e3c540fdeU,
  0xbd9471823dd40fdeU, 0xbb62330f3ae2330fU, 0xbda459193d4263e0U, 0x3d8f244fbb62330fU,
  0x3d2d2f173da61d7fU, 0xbcd40fdebdb60516U, 0xbd62330fbd29a64bU, 0x3da9a64b3d497579U,
  0x3cf2de993c649545U, 0x3bab6ff4bdc63972U, 0x3c48029cbd9601f5U, 0x3c0093f7bcfa0343U,
  0x3d9438cb3cebb9efU, 0xbc649545bccf2746U, 0x3c0edd4b3c39b948U, 0x3d9d269f3d126fa0U,
  0x3da2821fbd9d269fU, 0x3d0b4af6bbab6ff4U, 0x3dd8151b3ccf2746U, 0xbd85ef76bcab6ff4U,
  0xbdb626f33d3d4b9dU, 0xbce49545bd5d709bU, 0x3d04264cbbc8029cU, 0x3d39b948bd52b99bU,
  0x3da0b8f4bdad391eU, 0x3d97cb20bd2f0249U, 0x3dd2b99b3d72de99U, 0x3d1d269fbd9d269fU,
  0x3d0edd4bbd244b49U, 0xbc8093f73da2821fU, 0xbd07b8a1bdd8151bU, 0x3da614743d20b8f4U,
  0xbdad391e3d3626f3U, 0xbc9601f5bda2821fU, 0xbbe49545bd72de99U, 0xbd8981cbbc48029cU,
  0xbd7670ee3dbb8272U, 0x3cb9b9483ae49545U, 0xbdb7f01dbd7670eeU, 0xbcfa03433dcb94f1U,
  0x3d1601f5bd0b4af6U, 0xbddd709b3ddd709bU, 0x3c8edd4bbd7d9598U, 0x3dc0ddf23c1d269fU,
  0xbdc2a71d3dc8029cU, 0x3d4b94f13dc0ddf2U, 0xbcd64bf1bdaf0249U, 0xbda0b8f4bd19944aU,
  0x3d4b94f13b2b6ff4U, 0x3daf0249bbe49545U, 0x3d84264cbdc8029cU, 0x3d9601f5bc649545U,
  0x3d4b94f13a649545U, 0x3bc8029c3d90a676U, 0x3c0093f7bd8b4af6U, 0x3d564bf13d244b49U,
  0x3a6495453d0b4af6U, 0x3da2821fbb8edd4bU, 0x3db0cb73bda7dd9fU, 0xbcd64bf1bdab6ff4U,
  0x3d97cb203cebb9efU, 0xbda0b8f43d7d9598U, 0x3cc8029c3db626f3U, 0xbdbb8272bd52b99bU,
  0x3dd482c6bc9601f5U, 0x3d59de46bdcf2746U, 0x3ccf27463d9eefcaU, 0xbc9d269f3c8edd4bU,
  0x3dd0f071bd7a0343U, 0x3d6bb9efbc564bf1U, 0xbd6f4c44bd68279aU, 0xbc8edd4bbb649545U,
  0xbcebb9efbdad391eU, 0xbd39b9483cdd709bU, 0xbdc8029c3d825d21U, 0xbd99944a3d97cb20U,
  0xbc6495453d39b948U, 0xbd2b6ff43bc8029cU, 0x3d2b6ff43b2b6ff4U, 0xbc8edd4bbc564bf1U,
  0x3d19944abdad391eU, 0xbcf2de99bd40ddf2U, 0x3d97cb203d87b8a1U, 0x3be495453d40ddf2U,
  0x3de2cc1abd59de46U, 0xbdc63972bcd64bf1U, 0x3d48029c3dc0ddf2U, 0xbce495453a649545U,
  0xbcebb9efbdbd4b9dU, 0xbc9601f53dbb8272U, 0x3de102f03d2f0249U, 0x3c9d269fbd32949eU,
  0xbd2b6ff4bd19944aU, 0xbda614743db0cb73U, 0xbd564bf13dc2a71dU, 0x3bc8029c3d9601f5U,
  0x3b8edd4b3d99944aU, 0xbd8b4af6bc87b8a1U, 0xbcb9b948bc2b6ff4U, 0x3d32949e3cc8029cU,
  0x3dbf14c83b2b6ff4U, 0xbd72de993be49545U, 0xbd126fa03d39b948U, 0xbd244b493d32949eU,
  0x3b8edd4b3cc0ddf2U, 0x3dad391ebdb2949eU, 0xbd27dd9fbd9d269fU, 0x3c39b948bdc63972U,
  0xbdd64bf1bd6f4c44U, 0xbd07b8a1bd2f0249U, 0x3d40ddf23d564bf1U, 0xbddba770bdb9b948U,
  0x3da61474bc0edd4bU, 0x3d6495453d7d9598U, 0x3c87b8a1bd6f4c44U, 0x3c9601f5bd6102f0U,
  0x3dbf14c83d564bf1U, 0xbda44b493ccf2746U, 0xbbab6ff43c48029cU, 0x3dbd4b9d3d8981cbU,
  0x3d3626f33cfa0343U, 0xbc649545bc564bf1U, 0xbd27dd9fbcab6ff4U, 0xbcf2de993c2b6ff4U,
  0x3db626f3bdcd5e1cU, 0x3db626f33c8093f7U, 0xbd244b49bcc8029cU, 0x3d8981cb3d1d269fU,
  0x3d99944abca44b49U, 0xbdd2b99bbdc0ddf2U, 0xbdcd5e1cbdaf0249U, 0x3d126fa03db0cb73U,
  0x3d1601f53db9b948U, 0xbdc8029c3ca44b49U, 0x3d564bf1bcf2de99U, 0xbd3626f33cd64bf1U,
  0x3da7dd9fbd97cb20U, 0xbcc8029cbdcb94f1U, 0xbb8edd4bbd9d269fU, 0x3dbd4b9dbd59de46U,
  0xbd7a03433dc8029cU, 0x3d52b99bbd97cb20U, 0xbdbf14c83d90a676U, 0xbd39b948bd7a0343U,
  0xbbab6ff4bd59de46U, 0x3d1601f53da2821fU, 0xbdad391e3d5d709bU, 0xbd87b8a1bc564bf1U,
  0x3db9b948bd126fa0U, 0xbc9601f5bd0b4af6U, 0xbd87b8a13d8981cbU, 0xbcd64bf13da7dd9fU,
  0x3d879c093d7b46c5U, 0x3dad801b3d1f8a65U, 0x3d2f7ea23cdf5b5aU, 0xbd0f96283c8f9628U,
  0x3d1393373db17d2aU, 0xbd9b8d56bd979046U, 0xbdb17d2a3db37bb2U, 0xbd6b5288bdbd7458U,
  0x3d53642c3da38774U, 0xbd734ca7bd1f8a65U, 0xbd57613b3d337bb2U, 0x3aff43d5bcb778c1U,
  0x3db37bb23cc76cfeU, 0x3d3f72e0bd3778c1U, 0xbd1393373d734ca7U, 0x3cdf5b5a3d9f8a65U,
  0x3d3b75d0bd337bb2U, 0x3dd95fc3bda38774U, 0xbdfd454d3a7f43d5U, 0xbc5f5b5a3d039efaU,
  0xbdc171673c2f7ea2U, 0x3d6f4f973d81a072U, 0x3cff43d5bd0f9628U, 0xbd9194afbd476cfeU,
  0x3d9f8a653dc17167U, 0x3c7f43d53d1f8a65U, 0xbca78484bd734ca7U, 0x3db37bb23d839efaU,
  0xbd5f5b5abc3f72e0U, 0x3c879c093dcd6895U, 0x3d6f4f973d139337U, 0xbd3b75d0bd6b5288U,
  0x3dbd74583cf749b6U, 0xbd879c093d9b8d56U, 0xbd53642cbcb778c1U, 0x3de159e2bdbd7458U,
  0x3dd562b43d675579U, 0xbb7f43d53dbf72e0U, 0x3d8b9918bd9194afU, 0xbdf34ca73c2f7ea2U,
  0xbda188edbdc76cfeU, 0xbdcb6a0e3dbb75d0U, 0x3d81a072bd6f4f97U, 0x3dab81933d8d97a0U,
  0x3a7f43d5bdc76cfeU, 0x3d9194af3ddb5e4bU, 0x3d879c093d278484U, 0x3cc76cfe3d9591bfU,
  0x3d734ca7bd1b8d56U, 0x3d9194af3c3f72e0U, 0x3c6f4f97bd9d8bddU, 0x3ca78484bd7b46c5U,
  0xbd079c09bdaf7ea2U, 0x3c879c093c2f7ea2U, 0xbd2784843dab8193U, 0x3b3f72e0bc4f671dU,
  0xbdb57a393dab8193U, 0x3d6f4f973db57a39U, 0xbdd3642c3d278484U, 0x3bff43d53db17d2aU,
  0xbd9591bfbd57613bU, 0x3d899a913dd95fc3U, 0xbcef4f97bdbd7458U, 0x3d734ca73cdf5b5aU,
  0x3d6358693ccf671dU, 0x3dc17167bc0f9628U, 0xbcbf72e0bd9194afU, 0x3a7f43d5bcf749b6U,
  0xbdd95fc3bdc56e77U, 0xbbbf72e03d939337U, 0xbccf671d3d7749b6U, 0xbdd7613b3d079c09U,
  0x3daf7ea2bce75579U, 0xbdb17d2abc8f9628U, 0xbccf671dbdb778c1U, 0xbd9d8bddbb7f43d5U,
  0xbd9d8bdd3d9f8a65U, 0x3da585fcbd139337U, 0xbd039efa3bdf5b5aU, 0x3d839efa3d2f7ea2U,
  0x3bbf72e0bccf671dU, 0xbdcd68953d3778c1U, 0xbd7749b63d5f5b5aU, 0xbd3778c1baff43d5U,
  0x3d9194af3cdf5b5aU, 0xbd1b8d563c1f8a65U, 0xbcc76cfebc9f8a65U, 0xbcf749b6bbbf72e0U,
  0xbd337bb2bd3b75d0U, 0xbc2f7ea23d2f7ea2U, 0x3bbf72e03cff43d5U, 0x3d179046bd5f5b5aU,
  0xbdc17167bd734ca7U, 0x3d2f7ea2bd635869U, 0xbd998ece3b9f8a65U, 0xbdb37bb23b3f72e0U,
  0xbda188ed3d998eceU, 0x3da38774bdaf7ea2U, 0xbd839efabd7749b6U, 0xbda78484bce75579U,
  0x3c879c093a7f43d5U, 0x3dc56e773cf749b6U, 0xbc9790463d6b5288U, 0x3cef4f973d7b46c5U,
  0x3d1790463dc56e77U, 0xbd1393373d899a91U, 0xbdbb75d03d998eceU, 0xbc0f9628bc9f8a65U,
  0x3d0f96283d939337U, 0xbb7f43d5bd6f4f97U, 0x3d6358693c6f4f97U, 0xbdc36fefbcaf7ea2U,
  0x3cef4f97bc0f9628U, 0xbdc76cfebcaf7ea2U, 0x3c7f43d53dc76cfeU, 0xbd879c09bd8b9918U,
  0x3dc96b86bdb37bb2U, 0x3ddf5b5a3dd562b4U, 0xba7f43d5bd476cfeU, 0xbccf671dbcf749b6U,
  0xbd7b46c5bd337bb2U, 0x3d4f671dbbdf5b5aU, 0xbb3f72e0bd8b9918U, 0x3cb778c1bd436fefU,
  0x3a7f43d53da188edU, 0xbd139337bdad801bU, 0x3dc36fefbdc17167U, 0xbcd7613bbdc56e77U,
  0xbdc17167bd238774U, 0xbd839efa3db37bb2U, 0x3bbf72e03d476cfeU, 0xbd3f72e0bd4b6a0eU,
  0xbc9f8a653ca78484U, 0xbccf671d3d9f8a65U, 0xbc8f96283da9830bU, 0xbd979046bdd7613bU,
  0xbd3f72e0bcb778c1U, 0xbd0b9918bd9f8a65U, 0x3d3b75d03c4f671dU, 0xbcff43d5bd1b8d56U,
  0xbc9f8a65bd9d8bddU, 0x3cff43d5bcff43d5U, 0xbd039efabd4b6a0eU, 0x3d8b99183d8d97a0U,
  0x3d353daebbecb90dU, 0xbdc99595bd852817U, 0xbd7f3782bc9b5970U, 0xbdbaca043d318acaU,
  0xbdb3643c3b93f3a8U, 0x3c4f21eb3d52d4cfU, 0x3d0c8de0bd47bc23U, 0x3ddc140a3da498abU,
  0xbda0e5c7bd4b6f07U, 0xbd8c8de03d5687b3U, 0x3d7b849dbc8c8de0U, 0xbccf21ebbdc0565aU,
  0x3da84b8f3d5a3a98U, 0x3d38f0923d706bf1U, 0x3d7b849dbd5a3a98U, 0x3d834ea53c93f3a8U,
  0x3daa25013c22bf39U, 0xbdabfe73bc852817U, 0x3dbca376bde379d2U, 0x3ce55344bd1f0c55U,
  0x3a6cb90d3dafb157U, 0x3becb90d3d017533U, 0xbd17a68c3aecb90dU, 0x3ca2bf39bd8c8de0U,
  0x3d9b59703dc4093fU, 0x3d2dd7e53dda3a98U, 0x3c93f3a8bd1f0c55U, 0xbdcf21eb3d97a68cU,
  0xbc22bf39bc318acaU, 0xbc852817bdadd7e5U, 0x3cc0565a3d9b5970U, 0x3c13f3a8bdbe7ce8U,
  0x3becb90d3c318acaU, 0x3d2a2501bd9040c4U, 0x3d44093f3d9040c4U, 0xbd6906283db71720U,
  0x3dc22fcc3c852817U, 0x3cfb849d3c318acaU, 0xbd93f3a8bdb8f092U, 0xbc052817bd44093fU,
  0xbccf21ebU, 0xbdc5e2b1bdcb6f07U, 0xbd7b849d3b6cb90dU, 0x3d2a2501bdb8f092U,
  0xbd95cd1a3d1f0c55U, 0xbd44093f3d93f3a8U, 0xbd2a2501bd817533U, 0xbb6cb90dbd6cb90dU,
  0x3dcb6f073dc22fccU, 0x3d26721dbd3ca376U, 0x3deadf9bbdc7bc23U, 0x3d22bf393d5a3a98U,
  0xbd0c8de03ce55344U, 0x3d7f37823d1f0c55U, 0x3d834ea5bd9f0c55U, 0xbdb3643c3dc0565aU,
  0x3d17a68c3dc99595U, 0x3db18aca3c6cb90dU, 0xbcb18acabd47bc23U, 0x3becb90d3c7b849dU,
  0x3ca2bf393caa2501U, 0x3db717203d8c8de0U, 0xbd5687b33cc0565aU, 0xbd5ded7c3dafb157U,
  0xba6cb90dbdcb6f07U, 0xbce55344bdc7bc23U, 0xbd8e67523c13f3a8U, 0x3c8c8de03da6721dU,
  0x3dc0565abd706bf1U, 0x3d6906283c22bf39U, 0xbd97a68c3d817533U, 0xbd5ded7cbc9b5970U,
  0x3d2dd7e5bd655344U, 0xbd26721dbd61a060U, 0x3c40565abc5ded7cU, 0x3db18aca3dbca376U,
  0xbc13f3a8bdbca376U, 0x3d921a363dc7bc23U, 0x3cc0565abc7b849dU, 0x3aecb90d3ce55344U,
  0x3ddded7cbd17a68cU, 0x3da498ab3d1040c4U, 0x3d0175333d706bf1U, 0xbcfb849d3d93f3a8U,
  0xbd97a68c3d13f3a8U, 0x3db53dae3d8e6752U, 0xbcb18aca3cd687b3U, 0x3da6721dbd318acaU,
  0xbc6cb90d3d017533U, 0x3d5a3a983c4f21ebU, 0x3c318acabbcf21ebU, 0xbd9040c43d88dafbU,
